<blank> 0
<unk> 1
▁ 2
▁а 3
а 4
▁аа 5
аа 6
▁аав 7
аав 8
▁аавын 9
▁аавынхаа 10
ааг 11
аагаад 12
аагүй 13
аагч 14
▁аад 15
аад 16
аадаг 17
▁ааж 18
ааж 19
▁аажим 20
▁аажимдаа 21
▁аажмаар 22
ааз 23
аал 24
аалд 25
аалж 26
аалт 27
аалц 28
ааль 29
аам 30
▁аан 31
аан 32
аана 33
аанаас 34
аанд 35
аандаа 36
аанууд 37
ааны 38
▁аар 39
аар 40
аараа 41
аарай 42
аарх 43
▁аас 44
аас 45
аасаа 46
аасай 47
аасан 48
ааснаар 49
аасны 50
аатай 51
аах 52
аахан 53
аач 54
▁ааш 55
ааш 56
▁аб 57
аб 58
▁ав 59
ав 60
ава 61
▁аваа 62
▁аваагүй 63
▁аваад 64
▁аваарай 65
▁аваас 66
▁аваач 67
▁аваачиж 68
▁авав 69
▁авай 70
авал 71
▁авалт 72
▁аван 73
▁авар 74
▁аварга 75
▁аварч 76
▁авах 77
▁авахаар 78
▁авахад 79
▁авахгүй 80
▁авахдаа 81
▁авахыг 82
▁авахын 83
▁авбал 84
▁авга 85
▁авгай 86
▁авд 87
▁авдаг 88
▁авдаггүй 89
▁авжаа 90
▁авжаагийн 91
▁авиа 92
▁авиаг 93
▁авир 94
▁авлаа 95
▁авлага 96
▁авли 97
▁авлиг 98
▁авлигатай 99
▁авлигын 100
▁авна 101
▁авр 102
▁аврал 103
▁авралын 104
▁аврах 105
▁авс 106
▁авсан 107
▁австр 108
▁австрал 109
▁австрали 110
▁австри 111
▁авт 112
автар 113
▁автом 114
▁автсан 115
▁авч 116
авч 117
▁авчир 118
▁авчирдаг 119
▁авчирсан 120
▁авчирч 121
▁авчих 122
▁авчээ 123
авын 124
▁авья 125
▁авьяас 126
▁авьяастай 127
▁аг 128
аг 129
ага 130
▁агаад 131
▁агаар 132
агаар 133
▁агаарын 134
агал 135
агар 136
агд 137
агдаагүй 138
агдаад 139
агдав 140
агдаж 141
агдан 142
агдана 143
агдар 144
агдах 145
агддаг 146
агджээ 147
агдсан 148
▁агент 149
агийн 150
▁агн 151
агн 152
▁агнадаг 153
▁агнаж 154
▁агнах 155
▁агнуур 156
▁агнуурын 157
агс 158
агсад 159
▁агсан 160
▁агт 161
агт 162
агтун 163
▁агуу 164
▁агуул 165
▁агуулга 166
▁агуулгаар 167
▁агуулгыг 168
▁агуулдаг 169
▁агуулж 170
▁агуулсан 171
▁агуур 172
агүй 173
агц 174
агч 175
агчид 176
агчин 177
агш 178
▁агшин 179
▁агь 180
▁ад 181
ад 182
▁адаг 183
адаг 184
адай 185
адва 186
▁адгуу 187
▁адил 188
▁адилаар 189
▁адилгүй 190
▁адилхан 191
▁адис 192
▁адуу 193
▁адууг 194
адын 195
▁аж 196
аж 197
▁ажаа 198
▁ажгуу 199
▁ажиг 200
▁ажиглагчид 201
▁ажиглаж 202
▁ажиглалт 203
▁ажиглах 204
▁ажил 205
▁ажилгүй 206
▁ажилд 207
▁ажилдаа 208
▁ажиллаад 209
▁ажиллаг 210
▁ажиллагаа 211
▁ажиллагааг 212
▁ажиллагаагаа 213
▁ажиллагаанд 214
▁ажиллагааны 215
▁ажилладаг 216
▁ажиллаж 217
▁ажиллана 218
▁ажилласан 219
▁ажиллах 220
▁ажиллуулах 221
▁ажилтай 222
▁ажилтан 223
▁ажилтнууд 224
▁ажилтны 225
▁ажилчдын 226
▁ажилчид 227
▁ажилчин 228
▁ажлаа 229
▁ажлаас 230
▁ажлаасаа 231
▁ажлыг 232
▁ажлын 233
▁ажлынхаа 234
▁ажээ 235
ажээ 236
▁аз 237
аз 238
▁азар 239
▁ази 240
▁азид 241
▁азийн 242
▁азтай 243
▁ай 244
ай 245
айг 246
айд 247
▁айдаг 248
▁айдас 249
▁айж 250
айж 251
▁айз 252
▁айзам 253
▁айзамд 254
▁айкс 255
▁айл 256
▁айлд 257
▁айлт 258
▁айлтгаад 259
▁айлтгаруун 260
▁айлын 261
▁айм 262
▁аймаг 263
▁аймагт 264
▁аймгийг 265
▁аймгийн 266
▁аймгууд 267
▁аймгуудын 268
▁аймшиг 269
▁аймшигт 270
▁аймшигтай 271
айн 272
▁айраг 273
▁айс 274
▁айсан 275
▁айсуй 276
▁айфу 277
▁айх 278
▁ак 279
ак 280
▁акад 281
▁академ 282
▁академич 283
аков 284
акш 285
▁ал 286
ал 287
алаа 288
▁алаад 289
▁алав 290
алав 291
▁алаг 292
▁алагдсан 293
▁алан 294
▁алах 295
▁алб 296
▁алба 297
▁албагүй 298
▁албад 299
▁албадан 300
▁албан 301
▁албанд 302
▁албаны 303
▁албат 304
▁албыг 305
▁алга 306
алгаа 307
алгүй 308
▁алд 309
алд 310
▁алдаа 311
алдаа 312
▁алдаад 313
алдаан 314
▁алдав 315
алдав 316
▁алдаг 317
алдаг 318
▁алдаж 319
алдаж 320
▁алдан 321
алдан 322
▁алдар 323
▁алдарт 324
▁алдартай 325
▁алдарш 326
▁алдаршжээ 327
▁алдаршсан 328
▁алдах 329
▁алдсан 330
▁алек 331
▁александ 332
▁александр 333
▁алж 334
алж 335
алз 336
али 337
▁алив 338
▁аливаа 339
▁алийг 340
▁алим 341
▁алин 342
▁алинд 343
▁аллах 344
▁аллахаас 345
▁аллахад 346
▁аллахыг 347
▁аллахын 348
ална 349
▁алс 350
▁алсан 351
алсан 352
▁алсын 353
▁алт 354
алт 355
алтаас 356
▁алтай 357
алтай 358
▁алтайн 359
▁алтан 360
алтанд 361
алтыг 362
алтын 363
▁алх 364
▁алхаж 365
▁алхам 366
алц 367
алцан 368
алыг 369
алын 370
▁аль 371
аль 372
▁альенд 373
▁альенде 374
▁ам 375
ам 376
▁амаа 377
▁амаар 378
▁аман 379
▁аманд 380
▁амандаа 381
▁амар 382
▁амаргүй 383
▁амархан 384
▁амарч 385
▁амб 386
амб 387
амба 388
амбуу 389
амбын 390
амгай 391
▁амгалан 392
▁амгаланг 393
▁амгалангийн 394
амгүй 395
амд 396
▁америк 397
▁америкийн 398
▁америкт 399
▁амж 400
амж 401
▁амжаагүй 402
амжав 403
▁амжил 404
▁амжилт 405
▁амжилтанд 406
▁амжилтгүй 407
▁амжилттай 408
▁амжилтыг 409
▁амжилтын 410
амжтай 411
▁амиа 412
амид 413
▁амийг 414
▁амил 415
▁амин 416
▁аминд 417
▁аминдэм 418
▁амины 419
▁амлалт 420
▁амласан 421
▁амнаас 422
▁амны 423
▁амр 424
▁амраг 425
▁амралт 426
▁амрах 427
▁амс 428
амс 429
▁амссан 430
амсүрэн 431
▁амт 432
▁амтай 433
▁амтлаг 434
▁амттай 435
▁амуй 436
амуй 437
▁амуу 438
амц 439
амч 440
амшиг 441
▁амын 442
амын 443
▁амь 444
▁амьгүй 445
▁амьд 446
▁амьдар 447
▁амьдардаг 448
▁амьдарч 449
▁амьдр 450
▁амьдрал 451
▁амьдралаа 452
▁амьдралаас 453
▁амьдралд 454
▁амьдралдаа 455
▁амьдралыг 456
▁амьдралын 457
▁амьдралынхаа 458
▁амьдрах 459
▁амьс 460
▁амьсгаа 461
▁амьсгал 462
▁амьсгалын 463
▁амьт 464
▁амьтад 465
▁амьтан 466
▁амьтанд 467
▁амьтдыг 468
▁амьтдын 469
▁амьтны 470
▁амьтныг 471
▁ан 472
ан 473
ана 474
▁анаг 475
▁анагаах 476
▁анагаахад 477
▁анагаахын 478
▁ананд 479
▁анг 480
анг 481
▁анги 482
▁ангид 483
▁ангидаа 484
▁ангиж 485
▁ангийг 486
▁ангийн 487
ангийн 488
▁ангил 489
▁ангилдаг 490
▁англ 491
▁англи 492
▁английн 493
▁англичууд 494
ангуй 495
▁анд 496
анд 497
андаа 498
андар 499
▁андгай 500
андорж 501
▁анж 502
▁анзаар 503
▁анир 504
анк 505
▁анр 506
анс 507
▁ант 508
ант 509
▁ану 510
▁анх 511
▁анхаар 512
▁анхаарал 513
▁анхаарах 514
▁анхаарлаа 515
▁анхаарлыг 516
▁анхаарч 517
▁анхан 518
▁анхандаа 519
▁анхдагч 520
▁анхил 521
▁анхлан 522
▁анхнаасаа 523
▁анхны 524
анц 525
анцан 526
анч 527
аны 528
аныг 529
анын 530
▁ань 531
ань 532
ао 533
ап 534
апи 535
▁апп 536
▁аппар 537
▁ар 538
ар 539
ара 540
▁араас 541
▁араб 542
▁арав 543
▁аравдугаар 544
▁арай 545
▁арал 546
▁аран 547
▁араншин 548
▁арв 549
▁арваад 550
▁арван 551
▁арвин 552
▁арг 553
▁арга 554
▁аргаа 555
▁аргаар 556
▁аргагүй 557
▁аргал 558
▁аргачлал 559
▁аргыг 560
▁ард 561
ард 562
ардаг 563
▁ардчил 564
▁ардчилагчид 565
▁ардчилал 566
▁ардчиллын 567
▁ардчилсан 568
▁ардын 569
▁ари 570
ари 571
▁ариг 572
▁аригб 573
▁аригбөх 574
▁арил 575
▁арилгадаг 576
▁арилгаж 577
▁арилган 578
▁арилгана 579
▁арилгах 580
▁арилгахад 581
▁арилж 582
▁ариу 583
▁ариун 584
▁арм 585
▁арми 586
▁армийг 587
▁армийн 588
▁арс 589
арсан 590
▁арслан 591
▁арт 592
арт 593
▁арх 594
арх 595
▁архаг 596
архан 597
▁архе 598
▁архи 599
▁архиар 600
▁архийг 601
▁архинд 602
▁архины 603
▁арч 604
арч 605
арчээ 606
▁арын 607
арын 608
▁арь 609
▁арьс 610
▁арьсны 611
▁арьсыг 612
▁ас 613
ас 614
▁асан 615
асан 616
▁асар 617
асны 618
▁аср 619
▁асран 620
▁асрах 621
▁асс 622
▁ассир 623
аст 624
▁асуу 625
▁асуув 626
▁асууд 627
▁асуудаг 628
▁асуудал 629
▁асуудалд 630
▁асуудалтай 631
▁асуудлаа 632
▁асуудлаар 633
▁асуудлууд 634
▁асуудлуудыг 635
▁асуудлыг 636
▁асуудлын 637
▁асууж 638
▁асуул 639
▁асуулт 640
▁асуултад 641
▁асуултууд 642
▁асуултыг 643
▁асуултын 644
▁асууна 645
▁асуусан 646
▁асуух 647
▁асуухад 648
асын 649
▁ат 650
ат 651
▁атаарх 652
атай 653
▁атал 654
атал 655
▁атг 656
▁атир 657
ато 658
атор 659
▁атугай 660
атур 661
атын 662
▁ау 663
ау 664
▁аугаа 665
▁ауд 666
▁аудит 667
▁аудитын 668
▁аф 669
аф 670
▁афин 671
▁афины 672
▁афр 673
▁африк 674
▁африкийн 675
▁ах 676
ах 677
аха 678
ахаар 679
ахаас 680
ахад 681
▁ахай 682
ахай 683
ахан 684
ахгүй 685
ахдаа 686
▁ахиад 687
▁ахин 688
▁ахиц 689
▁ахлагч 690
▁ахлах 691
▁ахм 692
▁ахмад 693
▁ахмед 694
▁ахуй 695
ахуй 696
▁ахуйд 697
ахуйд 698
▁ахуйн 699
▁ахул 700
ахыг 701
▁ахын 702
ахын 703
ац 704
ацгаа 705
аци 706
▁ач 707
▁ачаа 708
▁ачаал 709
▁ачаалал 710
▁ачаар 711
▁ачийг 712
▁аш 713
аш 714
▁ашгийг 715
ашгүй 716
аши 717
▁ашиг 718
▁ашигладаг 719
▁ашиглаж 720
▁ашиглан 721
▁ашиглана 722
▁ашигласан 723
▁ашиглах 724
▁ашигтай 725
ашийн 726
ашин 727
▁аю 728
▁аюу 729
▁аюул 730
▁аюулгүй 731
▁аюултай 732
▁аюуш 733
▁ая 734
ая 735
▁аяа 736
аяа 737
▁аяга 738
▁аял 739
▁аялал 740
▁аялах 741
▁аялг 742
▁аялгуу 743
▁аян 744
▁аянд 745
▁аяндаа 746
▁аяс 747
▁аятай 748
▁б 749
б 750
▁ба 751
ба 752
▁баа 753
баа 754
▁баав 755
▁баар 756
▁баас 757
баас 758
▁баасыг 759
▁баатар 760
баатар 761
баатарын 762
▁баатр 763
▁баатрыг 764
▁баатрын 765
▁баахан 766
▁баг 767
▁бага 768
▁багаар 769
▁багаасаа 770
▁багагүй 771
▁багад 772
▁багадаа 773
▁багаж 774
▁багас 775
▁багасгах 776
▁багатай 777
▁багахан 778
▁багийн 779
▁багт 780
▁багтаа 781
▁багтаасан 782
▁багтаж 783
▁багтана 784
▁багтдаг 785
▁багц 786
▁багш 787
▁багшаа 788
▁багшаар 789
▁багшийг 790
▁багшийн 791
▁бад 792
бад 793
▁бадам 794
▁бадар 795
▁бадаргуулт 796
▁бадган 797
▁баз 798
баз 799
▁базар 800
базар 801
базарын 802
▁бай 803
бай 804
▁байв 805
▁байвал 806
▁байг 807
▁байгаа 808
▁байгааг 809
▁байгаагаа 810
▁байгаагаар 811
▁байгаагаас 812
▁байгаагийн 813
▁байгаагүй 814
▁байгаад 815
▁байгаарай 816
▁байгал 817
▁байгалийг 818
▁байгалийн 819
▁байгаль 820
▁байгтун 821
▁байгуул 822
▁байгуулав 823
▁байгуулагджээ 824
▁байгуулагдсан 825
▁байгуулагч 826
▁байгуулалт 827
▁байгуулалтын 828
▁байгууламж 829
▁байгуулах 830
▁байгуулж 831
▁байгуулжээ 832
▁байгууллаг 833
▁байгууллага 834
▁байгууллагад 835
▁байгууллагууд 836
▁байгууллагуудад 837
▁байгууллагуудын 838
▁байгууллагыг 839
▁байгууллагын 840
▁байгуулна 841
▁байгуулсан 842
▁байд 843
▁байдаг 844
▁байдаггүй 845
▁байдал 846
▁байдалд 847
▁байдалтай 848
▁байдгийг 849
▁байдл 850
▁байдлаа 851
▁байдлаар 852
▁байдлаас 853
▁байдлыг 854
▁байдлын 855
▁байж 856
▁байжээ 857
▁байл 858
▁байлаа 859
▁байлг 860
▁байлга 861
▁байлгаж 862
▁байлгажээ 863
▁байлгана 864
▁байлгах 865
▁байлгахыг 866
▁байлгүй 867
▁байлд 868
▁байлдааны 869
▁байлдаж 870
▁байлдан 871
▁байлдах 872
▁баймаар 873
▁баймуй 874
▁байн 875
▁байна 876
▁байнам 877
▁байнга 878
▁байнгын 879
▁байр 880
▁байранд 881
▁байрладаг 882
▁байрлал 883
▁байрлалд 884
▁байрны 885
▁байрш 886
▁байсаар 887
▁байсан 888
▁байсангүй 889
▁байснаа 890
▁байснаар 891
▁байснаас 892
▁байсны 893
▁байсныг 894
▁байтал 895
▁байтугай 896
▁байх 897
▁байхаа 898
▁байхаар 899
▁байхаас 900
▁байхав 901
▁байхад 902
▁байхгүй 903
▁байхдаа 904
▁байхыг 905
▁байхын 906
▁байц 907
▁байцаагч 908
▁байшин 909
▁байя 910
▁бак 911
▁бакалав 912
▁бакалаврын 913
▁бактер 914
▁бал 915
бал 916
▁балга 917
▁балетын 918
балжир 919
▁балин 920
▁балхүү 921
▁балчир 922
балын 923
▁бамб 924
▁бамбай 925
▁бан 926
▁банд 927
▁банди 928
▁бандид 929
▁бандида 930
▁банк 931
▁банкны 932
▁бар 933
бар 934
▁бараа 935
▁бараал 936
▁бараалх 937
▁бараан 938
▁бараг 939
▁барагд 940
▁барах 941
▁барваас 942
▁бардам 943
▁барж 944
▁бариад 945
▁барив 946
▁бариг 947
▁баригдсан 948
▁баригч 949
▁баригчид 950
▁барил 951
▁барилга 952
▁барилгын 953
▁барилд 954
▁барилдах 955
▁барим 956
▁баримж 957
▁баримжаа 958
▁баримжааны 959
▁баримт 960
▁баримтал 961
▁баримтлал 962
▁баримтлах 963
▁барин 964
▁барина 965
▁бариул 966
▁бариулсан 967
▁барих 968
▁барс 969
▁барсан 970
▁барсны 971
▁баруун 972
▁барууны 973
▁барь 974
▁барьдаг 975
▁барьж 976
▁барьжээ 977
▁барьсан 978
▁барьц 979
▁бас 980
▁басхүү 981
▁бат 982
бат 983
▁батал 984
▁баталгаа 985
▁баталгааж 986
▁баталгаажуулах 987
▁баталж 988
▁баталсан 989
▁батжаргал 990
▁батист 991
▁батлагдав 992
▁батлагдсан 993
▁батлан 994
▁батлах 995
▁батмөн 996
▁батмөнх 997
▁батын 998
▁бах 999
▁бахарх 1000
▁бахархаж 1001
▁бая 1002
бая 1003
▁баяж 1004
▁баял 1005
▁баялаг 1006
▁баялгийг 1007
▁баян 1008
▁баяр 1009
баяр 1010
▁баярлаж 1011
▁баярлалаа 1012
▁баярлан 1013
▁баярлах 1014
▁баяртай 1015
▁баярын 1016
▁баяс 1017
▁баясгал 1018
▁баясгалан 1019
бб 1020
▁бел 1021
▁бен 1022
▁бер 1023
бер 1024
▁би 1025
би 1026
▁биб 1027
▁бид 1028
▁бидний 1029
▁биднийг 1030
▁биднээс 1031
▁бидэнд 1032
▁бидэнтэй 1033
▁бие 1034
▁биед 1035
▁биедээ 1036
▁биеийг 1037
▁биеийн 1038
▁биел 1039
▁биелүүлж 1040
▁биелүүлсэн 1041
▁биелүүлэх 1042
▁биелүүлээгүй 1043
▁биенээ 1044
▁биет 1045
▁биетэй 1046
▁биеэ 1047
▁биеэр 1048
▁биеэс 1049
▁биз 1050
▁бизнес 1051
▁бизнесийн 1052
▁бий 1053
▁бил 1054
бил 1055
▁билгийн 1056
▁билиг 1057
▁билл 1058
▁билүү 1059
▁билэг 1060
▁билэгдлийг 1061
▁билэгдэл 1062
▁билээ 1063
▁бин 1064
▁бинт 1065
▁биологийн 1066
▁бир 1067
▁бит 1068
▁битгий 1069
▁битүү 1070
▁бич 1071
▁бичвэр 1072
▁бичгийг 1073
▁бичгийн 1074
▁бичгээр 1075
▁бичдэг 1076
▁бичжээ 1077
▁бичиг 1078
▁бичигдсэн 1079
▁бичигт 1080
▁бичиж 1081
▁бичил 1082
▁бичин 1083
▁бичих 1084
▁бичлэг 1085
▁бичлэгийг 1086
▁бичмэл 1087
▁бичнэ 1088
▁бичсэн 1089
▁бичээд 1090
▁бичээс 1091
▁бичээч 1092
▁биш 1093
биш 1094
▁бишр 1095
▁бишрэл 1096
▁бишрэн 1097
бл 1098
▁бн 1099
▁бо 1100
бо 1101
▁бог 1102
▁богд 1103
▁богин 1104
▁богино 1105
▁бод 1106
бод 1107
▁бодвол 1108
▁боддог 1109
▁бодис 1110
▁бодисадва 1111
▁бодисыг 1112
▁бодисын 1113
▁бодит 1114
▁бодитой 1115
▁бодлог 1116
▁бодлого 1117
▁бодлогыг 1118
▁бодлогын 1119
▁бодлоо 1120
▁бодлоор 1121
▁бодлыг 1122
▁бодлын 1123
▁бодно 1124
▁бодогч 1125
▁бодож 1126
▁бодол 1127
▁бодолд 1128
▁бодолтой 1129
▁бодон 1130
▁бодоод 1131
▁бодох 1132
▁бодохгүй 1133
▁бодоход 1134
▁бодсон 1135
▁бодь 1136
▁бой 1137
▁бол 1138
бол 1139
▁болб 1140
▁болбол 1141
▁болбоос 1142
▁болг 1143
▁болго 1144
▁болгов 1145
▁болгодог 1146
▁болгож 1147
▁болгожээ 1148
▁болгон 1149
▁болгонд 1150
▁болгоно 1151
▁болгоныг 1152
▁болгоо 1153
▁болгоод 1154
▁болгоомж 1155
▁болгоомжил 1156
▁болгоомжтой 1157
▁болгос 1158
▁болгосон 1159
▁болгох 1160
▁болгоход 1161
▁болгохыг 1162
▁болгохын 1163
▁болд 1164
болд 1165
▁болдог 1166
▁болдоггүй 1167
▁болж 1168
▁болжээ 1169
▁болз 1170
▁болзошгүй 1171
▁боллоо 1172
▁болмоор 1173
▁болмуй 1174
▁болно 1175
▁болов 1176
▁боловс 1177
▁боловсор 1178
▁боловсорсон 1179
▁боловср 1180
▁боловсрол 1181
▁боловсролд 1182
▁боловсролтой 1183
▁боловсролыг 1184
▁боловсролын 1185
▁боловсронгуй 1186
▁боловсрох 1187
▁боловсруул 1188
▁боловсруулагч 1189
▁боловсруулалт 1190
▁боловсруулан 1191
▁боловсруулах 1192
▁боловсруулахад 1193
▁боловсруулж 1194
▁боловсруулсан 1195
▁боловч 1196
▁болой 1197
▁бололтой 1198
▁бололц 1199
▁бололцоо 1200
▁болом 1201
▁боломж 1202
▁боломжгүй 1203
▁боломжийг 1204
▁боломжит 1205
▁боломжтой 1206
▁болон 1207
▁болоо 1208
▁болоогүй 1209
▁болоод 1210
▁болор 1211
▁болох 1212
▁болохгүй 1213
▁болоход 1214
▁болохоо 1215
▁болохоор 1216
▁болохоос 1217
▁болохыг 1218
▁болохын 1219
▁болруун 1220
▁болсноор 1221
▁болсноос 1222
▁болсны 1223
▁болсныг 1224
▁болсон 1225
▁болсонгүй 1226
▁болсонд 1227
▁болтол 1228
▁болтугай 1229
▁болцгоо 1230
▁болчих 1231
▁болчихдог 1232
▁болчихсон 1233
▁болчх 1234
▁боль 1235
▁больсон 1236
▁бон 1237
▁боо 1238
▁боов 1239
▁боож 1240
▁боол 1241
▁боолчлол 1242
▁боолын 1243
▁боом 1244
▁боомт 1245
▁боор 1246
▁боорчу 1247
▁бор 1248
бор 1249
▁борж 1250
▁боржиг 1251
▁бороо 1252
▁борохул 1253
▁бос 1254
▁босг 1255
▁босгож 1256
▁босгосон 1257
▁бослог 1258
▁бослого 1259
▁босогч 1260
▁босож 1261
▁босоод 1262
▁босох 1263
▁босч 1264
▁бот 1265
▁боть 1266
▁бох 1267
▁бохир 1268
▁бөг 1269
▁бөгөө 1270
▁бөгөөд 1271
▁бөгөөс 1272
▁бөгөөтөл 1273
▁бөл 1274
▁бөлгөө 1275
▁бөмб 1276
▁бөмбөг 1277
▁бөмбөр 1278
▁бөө 1279
▁бөөг 1280
▁бөөгийн 1281
▁бөөл 1282
▁бөөн 1283
▁бөөр 1284
▁бөөрний 1285
▁бөөрөн 1286
▁бөөрөнхий 1287
бөр 1288
▁бөрт 1289
▁бөртэ 1290
▁бөс 1291
▁бөх 1292
▁бөхийн 1293
▁бөхчүүд 1294
▁бр 1295
бр 1296
▁британ 1297
▁британи 1298
▁британийн 1299
бс 1300
бт 1301
▁бу 1302
бу 1303
▁буг 1304
▁бугуй 1305
▁бугын 1306
▁буд 1307
▁будаа 1308
▁будаг 1309
▁будд 1310
▁буддын 1311
▁буз 1312
▁бузар 1313
▁буй 1314
▁буйг 1315
▁буйгаа 1316
▁бул 1317
▁булаа 1318
▁булаг 1319
▁булан 1320
▁булг 1321
▁булган 1322
▁булчин 1323
▁булчингийн 1324
▁булчир 1325
▁бум 1326
▁бун 1327
▁бур 1328
▁буриад 1329
▁буруу 1330
▁бурууг 1331
▁буруутай 1332
▁бурууш 1333
▁бурх 1334
▁бурхад 1335
▁бурхан 1336
▁бурханд 1337
▁бурханы 1338
▁бурхдын 1339
▁бурхны 1340
▁бурхныг 1341
▁бус 1342
▁бусаар 1343
▁бусад 1344
▁бусадтай 1345
▁бусдаас 1346
▁бусдад 1347
▁бусдыг 1348
▁бусдын 1349
▁бусын 1350
▁бут 1351
▁буу 1352
буу 1353
▁буув 1354
▁бууд 1355
▁буудал 1356
▁бууж 1357
▁буул 1358
▁буулга 1359
▁буулгав 1360
▁буулгаж 1361
▁буулгасан 1362
▁буун 1363
▁бууны 1364
▁буур 1365
▁буурал 1366
▁буурсан 1367
▁бууруулах 1368
▁бууруулж 1369
▁буурч 1370
▁буусан 1371
▁бух 1372
▁бухим 1373
▁буху 1374
▁буц 1375
▁буцаад 1376
▁буцааж 1377
▁буцаан 1378
▁буцаж 1379
▁буцал 1380
▁буцалгаж 1381
▁буцалгана 1382
▁буцалсан 1383
▁буцах 1384
▁буш 1385
▁буюу 1386
▁буя 1387
▁буян 1388
▁буянт 1389
▁буянтай 1390
▁буяны 1391
▁бү 1392
бү 1393
▁бүг 1394
▁бүгд 1395
▁бүгдийг 1396
▁бүгдийн 1397
▁бүгдэд 1398
▁бүгдээр 1399
▁бүгдээрээ 1400
▁бүд 1401
▁бүдүүлэг 1402
▁бүдүүн 1403
▁бүж 1404
▁бүжгийн 1405
▁бүжиг 1406
▁бүжиглэж 1407
▁бүл 1408
▁бүлг 1409
▁бүлгийн 1410
▁бүлгэм 1411
▁бүлгээ 1412
▁бүлд 1413
▁бүлийн 1414
▁бүлэг 1415
▁бүлэглэл 1416
▁бүлэгт 1417
▁бүлээ 1418
▁бүлээн 1419
▁бүр 1420
▁бүрд 1421
▁бүрддэг 1422
▁бүрдсэн 1423
▁бүрдүүлж 1424
▁бүрдүүлнэ 1425
▁бүрдүүлэх 1426
▁бүрдэнэ 1427
▁бүри 1428
▁бүрийг 1429
▁бүрийн 1430
▁бүрмөсөн 1431
▁бүрнээ 1432
▁бүрт 1433
▁бүртг 1434
▁бүртгэл 1435
▁бүрх 1436
▁бүрхүүл 1437
▁бүрэлд 1438
▁бүрэлдэхүүн 1439
▁бүрэлдэхүүнд 1440
▁бүрэн 1441
▁бүрэнт 1442
▁бүрээр 1443
▁бүрээс 1444
▁бүс 1445
▁бүсгүй 1446
▁бүсийн 1447
▁бүт 1448
▁бүтсэн 1449
▁бүтц 1450
▁бүтцийг 1451
▁бүтцийн 1452
▁бүтэлгүй 1453
▁бүтэн 1454
▁бүтэц 1455
▁бүтээ 1456
▁бүтээгд 1457
▁бүтээгдэхүүн 1458
▁бүтээгдэхүүний 1459
▁бүтээгдэхүүнийг 1460
▁бүтээдэг 1461
▁бүтээж 1462
▁бүтээжээ 1463
▁бүтээл 1464
▁бүтээлд 1465
▁бүтээлийг 1466
▁бүтээлийн 1467
▁бүтээлүүд 1468
▁бүтээлч 1469
▁бүтээлчид 1470
▁бүтээлээ 1471
▁бүтээн 1472
▁бүтээнэ 1473
▁бүтээсэн 1474
▁бүтээх 1475
▁бүү 1476
▁бүүр 1477
▁бүх 1478
▁бүхий 1479
▁бүхийг 1480
▁бүхний 1481
▁бүхнийг 1482
▁бүхнээ 1483
▁бүхнээс 1484
▁бүхүйд 1485
▁бүхэл 1486
▁бүхэлд 1487
▁бүхэлдээ 1488
▁бүхэн 1489
▁бүхэнд 1490
▁бх 1491
▁бхоол 1492
▁бхоолаа 1493
быг 1494
бын 1495
▁бэ 1496
бэ 1497
▁бэг 1498
▁бэй 1499
бэй 1500
▁бэйл 1501
▁бэйлийн 1502
▁бэйс 1503
▁бэйсийн 1504
▁бэл 1505
бэл 1506
▁бэлг 1507
▁бэлгийн 1508
▁бэлгүтэй 1509
▁бэлгэ 1510
▁бэлгэд 1511
▁бэлгэдэл 1512
▁бэлгэтэй 1513
▁бэлд 1514
▁бэлдсэн 1515
▁бэлдэж 1516
▁бэлдэх 1517
▁бэлтг 1518
▁бэлтгэдэг 1519
▁бэлтгэж 1520
▁бэлтгэл 1521
▁бэлтгэн 1522
▁бэлтгэнэ 1523
▁бэлтгэсэн 1524
▁бэлтгэх 1525
▁бэлчир 1526
▁бэлчр 1527
▁бэлчрийг 1528
▁бэлчээр 1529
▁бэлэг 1530
▁бэлэн 1531
▁бэр 1532
бэр 1533
▁бэрт 1534
▁бэрх 1535
▁бэрхшээл 1536
▁бэрхшээлийг 1537
▁бэрхшээлтэй 1538
▁бэт 1539
▁бэтэг 1540
▁бэх 1541
▁бэхжүүлэх 1542
▁бэхи 1543
▁бэхлэн 1544
▁бээж 1545
▁бээр 1546
бээс 1547
▁бя 1548
▁бял 1549
▁бялд 1550
▁бямб 1551
▁бясал 1552
▁бясалгал 1553
▁бяц 1554
▁бяцхан 1555
▁в 1556
в 1557
ва 1558
ваа 1559
ваан 1560
ваас 1561
▁вав 1562
▁вавилон 1563
вад 1564
▁вай 1565
вай 1566
▁вал 1567
вал 1568
▁ван 1569
ван 1570
▁ванг 1571
▁вангийн 1572
▁вангууд 1573
▁ванд 1574
▁вант 1575
▁вар 1576
вар 1577
вас 1578
▁вашин 1579
▁вашингт 1580
вд 1581
вель 1582
▁вен 1583
вен 1584
▁виз 1585
▁вий 1586
вийн 1587
▁вик 1588
вин 1589
▁вир 1590
▁владим 1591
вой 1592
вол 1593
воос 1594
вор 1595
вөл 1596
вөөс 1597
вөр 1598
вч 1599
▁вьетн 1600
▁вэ 1601
▁вэй 1602
вэй 1603
вэл 1604
▁вэнь 1605
вэр 1606
вээ 1607
вээс 1608
▁г 1609
г 1610
▁га 1611
га 1612
▁гаа 1613
гаа 1614
гаагүй 1615
гаад 1616
гааж 1617
гаал 1618
гаан 1619
гаана 1620
гаанд 1621
гааны 1622
гаар 1623
гаараа 1624
гаарай 1625
гаас 1626
гаасаа 1627
гаая 1628
▁гав 1629
гав 1630
гавал 1631
гавар 1632
▁гавья 1633
▁гавьяа 1634
▁гавьяат 1635
▁гагц 1636
▁гагцаар 1637
▁гагцхүү 1638
гагч 1639
▁гад 1640
гад 1641
▁гадаа 1642
▁гадаад 1643
▁гадаадад 1644
▁гадаадын 1645
гадаг 1646
▁гадагш 1647
▁гадар 1648
▁гадас 1649
▁гадна 1650
▁гаднаас 1651
▁гадны 1652
▁гадуур 1653
▁гадуурх 1654
▁гаж 1655
гаж 1656
гажээ 1657
▁газ 1658
▁газар 1659
▁газарт 1660
▁газартаа 1661
▁газр 1662
▁газраа 1663
▁газраар 1664
▁газраас 1665
▁газруудад 1666
▁газрыг 1667
▁газрын 1668
▁гай 1669
гай 1670
▁гайгүй 1671
гайн 1672
▁гайх 1673
▁гайхаж 1674
▁гайхалтай 1675
▁гайхам 1676
▁гайхамшиг 1677
▁гайхамшигт 1678
▁гайхамшигтай 1679
▁гайхшир 1680
▁гал 1681
гал 1682
галаа 1683
галаг 1684
галан 1685
▁галд 1686
▁галдан 1687
галж 1688
▁галз 1689
▁галзуу 1690
▁галл 1691
▁галт 1692
галт 1693
▁галыг 1694
▁галын 1695
▁гам 1696
гам 1697
▁гамб 1698
гамж 1699
▁ган 1700
ган 1701
гана 1702
▁ганд 1703
ганд 1704
▁ганди 1705
▁ганжуур 1706
▁ганц 1707
▁ганцаар 1708
▁ганцаараа 1709
▁ганцхан 1710
ганы 1711
▁гар 1712
гар 1713
▁гараа 1714
▁гараагүй 1715
▁гараад 1716
▁гараар 1717
▁гараараа 1718
▁гараас 1719
▁гарав 1720
▁гараг 1721
▁гарал 1722
▁гаралтай 1723
▁гарамгай 1724
▁гаран 1725
▁гарах 1726
▁гарахад 1727
▁гарахгүй 1728
▁гарахыг 1729
▁гарвал 1730
▁гарга 1731
▁гаргаад 1732
▁гаргав 1733
▁гаргадаг 1734
▁гаргаж 1735
▁гаргажээ 1736
▁гаргал 1737
▁гаргалаа 1738
▁гарган 1739
▁гаргана 1740
▁гаргасан 1741
▁гаргах 1742
▁гаргахад 1743
▁гаргахгүй 1744
▁гаргахыг 1745
▁гаргахын 1746
▁гаргуул 1747
▁гардаг 1748
▁гардаггүй 1749
▁гарз 1750
▁гарибал 1751
▁гариг 1752
▁гарлаа 1753
▁гарна 1754
▁гарсан 1755
▁гарт 1756
▁гартаа 1757
▁гаруй 1758
▁гарц 1759
▁гарцаагүй 1760
▁гарч 1761
▁гарчээ 1762
▁гарыг 1763
▁гарын 1764
▁гарьд 1765
гас 1766
гасан 1767
гасанд 1768
гасны 1769
▁гат 1770
гат 1771
гатай 1772
гато 1773
▁гах 1774
гах 1775
гахад 1776
▁гахай 1777
▁гахайн 1778
гахыг 1779
▁гац 1780
гац 1781
▁гаш 1782
▁гашууд 1783
▁гашуун 1784
гд 1785
гдсан 1786
гдэж 1787
▁ге 1788
▁гей 1789
▁ген 1790
▁генер 1791
▁генерал 1792
▁генрих 1793
▁гер 1794
гер 1795
▁герм 1796
▁герман 1797
▁германд 1798
▁германы 1799
▁ги 1800
ги 1801
гиан 1802
гий 1803
▁гийг 1804
гийг 1805
▁гийн 1806
гийн 1807
▁гин 1808
гион 1809
гир 1810
гис 1811
▁гит 1812
▁гитл 1813
▁гитлер 1814
▁гичир 1815
▁гиш 1816
▁гишг 1817
▁гишүүд 1818
▁гишүүдийн 1819
▁гишүүн 1820
▁гл 1821
▁го 1822
▁гов 1823
год 1824
▁гоё 1825
гой 1826
▁гол 1827
▁голд 1828
▁голдуу 1829
▁голлох 1830
▁голом 1831
▁голомт 1832
▁голчлон 1833
▁голын 1834
▁гом 1835
▁гомб 1836
▁гомбо 1837
▁гомбож 1838
▁гомбоо 1839
▁гомбос 1840
▁гомбосүрэн 1841
▁гомд 1842
▁гомдлыг 1843
▁гомдол 1844
▁гомдоо 1845
▁гон 1846
гон 1847
▁гончиг 1848
▁гоо 1849
гоо 1850
▁гообар 1851
гоор 1852
гоос 1853
▁гор 1854
гор 1855
▁горх 1856
▁горьд 1857
▁гоц 1858
гө 1859
гөв 1860
гөд 1861
гөж 1862
▁гөл 1863
гөл 1864
гөлд 1865
гөн 1866
гөний 1867
гөнө 1868
гөө 1869
гөөд 1870
гөөн 1871
гөөр 1872
гөөс 1873
▁гөр 1874
гөр 1875
▁гөрөө 1876
▁гөрөөс 1877
▁гөрөөсний 1878
гөсөн 1879
гөх 1880
▁гр 1881
▁грек 1882
▁грекийн 1883
▁грекүүд 1884
▁групп 1885
гт 1886
гтун 1887
гтүн 1888
▁гу 1889
гу 1890
▁гуай 1891
▁гуайн 1892
▁гуд 1893
гуд 1894
▁гудамж 1895
▁гудамжинд 1896
▁гуй 1897
гуй 1898
▁гуйв 1899
▁гуйж 1900
▁гуйлга 1901
▁гуйсан 1902
▁гул 1903
▁гун 1904
▁гуниг 1905
▁гур 1906
▁гурав 1907
▁гураван 1908
▁гуравдугаар 1909
▁гурв 1910
▁гурвал 1911
▁гурвалжин 1912
▁гурван 1913
▁гурвантаа 1914
▁гурвуулаа 1915
▁гурвыг 1916
▁гурвын 1917
▁гурил 1918
гус 1919
▁гут 1920
▁гутал 1921
▁гутгаар 1922
гуу 1923
гууд 1924
гуудыг 1925
гуудын 1926
гуул 1927
гуулж 1928
гуур 1929
▁гуч 1930
▁гучин 1931
▁гуя 1932
▁гү 1933
▁гүвд 1934
▁гүвдрүү 1935
▁гүжир 1936
▁гүй 1937
гүй 1938
гүйгээр 1939
▁гүйж 1940
▁гүйл 1941
гүйн 1942
▁гүйх 1943
▁гүйц 1944
▁гүйцэж 1945
▁гүйцэтг 1946
▁гүйцэтгэдэг 1947
▁гүйцэтгэж 1948
▁гүйцэтгэсэн 1949
▁гүйцэтгэх 1950
▁гүн 1951
▁гүнгийн 1952
▁гүнд 1953
▁гүнж 1954
▁гүнзгий 1955
▁гүр 1956
▁гүрний 1957
▁гүрнүүд 1958
▁гүрэн 1959
▁гүү 1960
гүү 1961
гүүд 1962
гүүдийг 1963
гүүдийн 1964
гүүдэд 1965
гүүн 1966
▁гүүр 1967
гүүр 1968
▁гүюг 1969
гч 1970
гыг 1971
гын 1972
▁гэ 1973
гэ 1974
▁гэв 1975
гэв 1976
▁гэвч 1977
▁гэвэл 1978
▁гэг 1979
▁гэгч 1980
▁гэгээ 1981
▁гэгээн 1982
▁гэгээний 1983
▁гэгээр 1984
▁гэд 1985
гэд 1986
▁гэдгийг 1987
▁гэдгийн 1988
▁гэдгээ 1989
▁гэдэг 1990
гэдэг 1991
▁гэдэгт 1992
▁гэдэс 1993
▁гэдэсний 1994
▁гэж 1995
гэж 1996
▁гэжээ 1997
▁гэз 1998
▁гэзэг 1999
▁гэл 2000
гэл 2001
▁гэлц 2002
▁гэлэн 2003
гэлэн 2004
▁гэлээ 2005
гэлээ 2006
▁гэм 2007
▁гэмт 2008
▁гэмтсэн 2009
▁гэмтэл 2010
▁гэмтээ 2011
▁гэмээ 2012
▁гэн 2013
гэн 2014
▁гэнд 2015
гэнд 2016
▁гэндэн 2017
гэний 2018
▁гэнэ 2019
гэнэ 2020
▁гэнэн 2021
▁гэнэт 2022
▁гэр 2023
гэр 2024
▁гэрг 2025
▁гэргий 2026
▁гэрийн 2027
▁гэрт 2028
▁гэртээ 2029
▁гэрч 2030
▁гэрэл 2031
гэрэл 2032
▁гэрэлт 2033
▁гэрэлтийн 2034
▁гэрээ 2035
▁гэрээг 2036
▁гэрээнд 2037
▁гэрээний 2038
▁гэрээс 2039
▁гэрээсээ 2040
▁гэс 2041
гэс 2042
▁гэсгээ 2043
▁гэсгээл 2044
▁гэсэн 2045
гэсэн 2046
▁гэсэнд 2047
▁гэсээр 2048
▁гэт 2049
▁гэтэл 2050
▁гэх 2051
гэх 2052
▁гэхдээ 2053
▁гэхэд 2054
▁гэхээр 2055
▁гэхээс 2056
▁гээ 2057
гээ 2058
гээгүй 2059
▁гээд 2060
гээд 2061
гээдэг 2062
гээр 2063
гээрүүн 2064
гээрэй 2065
гээрээ 2066
гээс 2067
▁гээч 2068
▁гя 2069
▁гял 2070
▁гялалз 2071
▁д 2072
д 2073
▁да 2074
▁даа 2075
даа 2076
▁даав 2077
даагүй 2078
даад 2079
▁даадаа 2080
▁даадаадийнэ 2081
▁дааж 2082
▁даал 2083
▁даалгав 2084
▁даалгавар 2085
▁даам 2086
▁даан 2087
▁даанч 2088
даар 2089
даас 2090
▁даасан 2091
▁дав 2092
дав 2093
▁даваа 2094
▁давамгай 2095
▁даван 2096
▁давах 2097
▁давж 2098
▁давс 2099
▁давсан 2100
▁давт 2101
▁давтах 2102
▁давуу 2103
▁давх 2104
▁давхар 2105
▁давь 2106
▁даг 2107
даг 2108
▁дагаад 2109
▁дагаар 2110
▁дагав 2111
▁дагавар 2112
▁дагаж 2113
▁дагалд 2114
▁дагалдан 2115
▁даган 2116
▁дагасан 2117
▁дагах 2118
даггүй 2119
▁дагуу 2120
▁дагуул 2121
▁дагуулан 2122
▁дагуулж 2123
дагч 2124
дагчид 2125
▁дад 2126
дад 2127
▁дадал 2128
▁дадлаг 2129
▁дадлага 2130
даж 2131
▁дай 2132
дай 2133
▁дайду 2134
▁дайл 2135
▁дайлаар 2136
▁дайлж 2137
▁даймин 2138
▁дайн 2139
▁дайнд 2140
▁дайны 2141
▁дайныг 2142
▁дайр 2143
▁дайсагн 2144
▁дайсан 2145
▁дайсанд 2146
▁дайсн 2147
▁дайснаа 2148
▁дайсны 2149
▁дайчин 2150
▁дайчингийн 2151
▁дал 2152
дал 2153
▁далай 2154
▁далайд 2155
▁далайн 2156
▁далан 2157
далгүй 2158
▁далд 2159
▁дам 2160
дам 2161
▁дамд 2162
▁дамдин 2163
▁дамдинсүрэн 2164
▁дамж 2165
▁дамжин 2166
▁дамжуулан 2167
▁дамжуулах 2168
▁дан 2169
дан 2170
дана 2171
▁дангаараа 2172
▁дандаа 2173
▁данзан 2174
данзан 2175
▁данс 2176
▁дар 2177
дар 2178
▁дараа 2179
▁дараагаар 2180
▁дараагийн 2181
▁дараал 2182
▁дараалал 2183
▁дараалан 2184
▁дараах 2185
▁дараачийн 2186
▁дарав 2187
▁даралт 2188
▁дарам 2189
▁дарамт 2190
▁даран 2191
▁дарангуй 2192
▁дарангуйлагч 2193
▁дарах 2194
▁дарга 2195
▁даргаар 2196
▁даргын 2197
▁дардаг 2198
▁дарж 2199
▁дарс 2200
▁дарсан 2201
▁даруй 2202
▁даруулж 2203
▁дарх 2204
▁дархан 2205
▁дарь 2206
▁дас 2207
дас 2208
▁дасан 2209
▁дасгал 2210
▁дасгалыг 2211
▁дах 2212
дах 2213
▁дахиад 2214
▁дахиж 2215
▁дахин 2216
▁дахинаа 2217
▁дахины 2218
▁дахиныг 2219
▁дахь 2220
▁дац 2221
▁даш 2222
▁дая 2223
▁даяар 2224
▁даян 2225
ддаг 2226
ддэг 2227
▁де 2228
джээ 2229
▁ди 2230
ди 2231
▁див 2232
▁диз 2233
▁дизра 2234
▁дий 2235
дийг 2236
▁дийлэн 2237
▁дийлэнх 2238
дийн 2239
дийнэ 2240
▁дил 2241
▁дин 2242
▁диплом 2243
дл 2244
длаа 2245
длийг 2246
длийн 2247
длог 2248
длоо 2249
длүүд 2250
длыг 2251
длын 2252
длээ 2253
▁доб 2254
▁дов 2255
дов 2256
▁довт 2257
▁довтлон 2258
▁довтол 2259
▁довтолг 2260
▁довтолгоон 2261
▁довтолж 2262
▁дог 2263
дог 2264
доггүй 2265
▁догол 2266
догч 2267
▁догшин 2268
дод 2269
дож 2270
▁док 2271
▁доктор 2272
▁докторын 2273
▁дол 2274
дол 2275
▁долгор 2276
▁долд 2277
▁долдугаар 2278
▁долл 2279
▁доллар 2280
▁долоо 2281
▁долоод 2282
▁долоодугаар 2283
▁долоон 2284
▁дом 2285
▁домгийн 2286
▁домог 2287
▁домогт 2288
▁дон 2289
дон 2290
▁донг 2291
▁донгод 2292
▁донд 2293
▁дондов 2294
▁донор 2295
▁доо 2296
доо 2297
▁доог 2298
▁доогуур 2299
▁доод 2300
▁доор 2301
▁доорх 2302
▁доош 2303
▁доошгүй 2304
▁доошоо 2305
▁доп 2306
▁допингийн 2307
▁дор 2308
▁дорг 2309
▁дорж 2310
дорж 2311
доржийн 2312
▁дорн 2313
▁дорно 2314
▁дорнод 2315
▁дорнын 2316
▁дорой 2317
▁доройт 2318
▁дором 2319
▁доромж 2320
▁доромжил 2321
▁дороо 2322
▁дот 2323
▁дотно 2324
▁дотны 2325
▁дотогш 2326
▁дотоод 2327
▁дотоодын 2328
▁дотор 2329
▁доторх 2330
▁дотр 2331
▁дотроо 2332
▁дотроос 2333
▁дотуур 2334
▁дох 2335
дох 2336
▁дохи 2337
▁дохио 2338
▁дө 2339
дөг 2340
дөггүй 2341
▁дөл 2342
▁дөлгөөн 2343
▁дөнгө 2344
▁дөнгөж 2345
▁дөө 2346
дөө 2347
▁дөр 2348
▁дөрв 2349
▁дөрвөл 2350
▁дөрвөлжин 2351
▁дөрвөн 2352
▁дөрөв 2353
▁дөрөвдүгээр 2354
▁дөх 2355
▁дөхөж 2356
▁дөхөм 2357
▁дөч 2358
▁дөчин 2359
▁др 2360
▁драм 2361
▁дрейф 2362
дсан 2363
дсон 2364
дсэн 2365
▁ду 2366
ду 2367
▁дугаар 2368
дугаар 2369
▁дугар 2370
▁дугт 2371
▁дугтуй 2372
▁дугуй 2373
▁дул 2374
▁дулаан 2375
▁дулаар 2376
▁дун 2377
▁дунд 2378
▁дундаа 2379
▁дундаас 2380
▁дундад 2381
▁дундаж 2382
▁дундуур 2383
▁дундын 2384
▁дур 2385
▁дураар 2386
▁дураараа 2387
▁дургүй 2388
▁дургүйц 2389
▁дурд 2390
▁дурдах 2391
▁дурдсан 2392
▁дурс 2393
▁дурсамж 2394
▁дурсгал 2395
▁дуртай 2396
▁дурын 2397
▁дурьд 2398
▁дус 2399
▁дусаа 2400
▁дусаавал 2401
▁дусал 2402
▁дут 2403
▁дутааж 2404
▁дутаг 2405
▁дутагдал 2406
▁дутагдалтай 2407
▁дутмаг 2408
▁дутуу 2409
▁дуу 2410
дуу 2411
▁дууг 2412
▁дуугаа 2413
▁дуугаар 2414
▁дуугар 2415
▁дуугүй 2416
▁дууд 2417
▁дуудаж 2418
▁дуудах 2419
▁дууддаг 2420
▁дуудлага 2421
▁дуудсан 2422
▁дуул 2423
дуул 2424
▁дуулах 2425
дуулах 2426
▁дуулга 2427
▁дуулдаг 2428
▁дуулж 2429
▁дуулна 2430
▁дуулсан 2431
▁дуун 2432
▁дууны 2433
▁дуур 2434
▁дуурай 2435
▁дуурийн 2436
▁дуурь 2437
▁дуурьс 2438
▁дуурьсгуур 2439
▁дуус 2440
▁дуусах 2441
▁дууссан 2442
▁дууссаны 2443
▁дуустал 2444
▁дуучид 2445
▁дуучин 2446
▁дү 2447
▁дүг 2448
▁дүгн 2449
▁дүгнэж 2450
▁дүгнэлт 2451
▁дүгнэлтийг 2452
▁дүгээр 2453
▁дүй 2454
▁дүл 2455
▁дүн 2456
▁дүнг 2457
▁дүнгээ 2458
▁дүнд 2459
▁дүнтэй 2460
▁дүр 2461
▁дүрв 2462
▁дүрд 2463
▁дүрийг 2464
▁дүрийн 2465
▁дүрм 2466
▁дүрмийг 2467
▁дүрс 2468
▁дүрслэх 2469
▁дүрсэлсэн 2470
▁дүрэм 2471
▁дүү 2472
▁дүүг 2473
▁дүүгийн 2474
▁дүүгээ 2475
▁дүүр 2476
▁дүүргийн 2477
▁дүүргэж 2478
▁дүүрсэн 2479
▁дүүрэн 2480
▁дүүс 2481
дх 2482
▁дхан 2483
▁дханиа 2484
дыг 2485
дын 2486
▁дэ 2487
▁дэв 2488
дэв 2489
▁дэвс 2490
▁дэвсгэр 2491
▁дэвт 2492
▁дэвтр 2493
▁дэвтэр 2494
▁дэвтээ 2495
▁дэвтээлэг 2496
▁дэвш 2497
▁дэвшигч 2498
▁дэвшил 2499
▁дэвшилт 2500
▁дэвшүүлсэн 2501
▁дэг 2502
дэг 2503
дэггүй 2504
▁дэглэм 2505
дэгч 2506
▁дэд 2507
дэд 2508
дэж 2509
▁дэй 2510
▁дэл 2511
дэл 2512
▁дэлб 2513
▁дэлг 2514
▁дэлгүүр 2515
▁дэлгэр 2516
▁дэлгэрсэн 2517
▁дэлгэрч 2518
▁дэлгэрчээ 2519
▁дэлгэрэнгүй 2520
▁дэлгэц 2521
▁дэлхий 2522
▁дэлхийг 2523
▁дэлхийд 2524
▁дэлхийн 2525
▁дэм 2526
▁дэмж 2527
▁дэмждэг 2528
▁дэмжиж 2529
▁дэмжин 2530
▁дэмжих 2531
▁дэмжлэг 2532
▁дэмий 2533
▁дэн 2534
дэн 2535
▁дэнд 2536
▁дэндүү 2537
дэнэ 2538
▁дэр 2539
▁дэргэд 2540
▁дэс 2541
▁дэх 2542
дэх 2543
▁дээ 2544
дээ 2545
дээгүй 2546
▁дээгүүр 2547
▁дээд 2548
дээд 2549
▁дээдийн 2550
▁дээдсийн 2551
▁дээдэс 2552
▁дээж 2553
▁дээжийг 2554
▁дээл 2555
▁дээр 2556
▁дээрх 2557
▁дээрэм 2558
▁дээрээ 2559
▁дээрээс 2560
дээс 2561
▁дээш 2562
▁дээшлүүлэх 2563
▁дээшээ 2564
▁е 2565
е 2566
▁ё 2567
ё 2568
еал 2569
еб 2570
▁ебс 2571
▁ев 2572
ев 2573
▁евр 2574
▁еврей 2575
▁европ 2576
▁европт 2577
▁европчууд 2578
▁европын 2579
ег 2580
егийн 2581
▁егип 2582
▁египет 2583
▁египетийн 2584
егр 2585
▁егүү 2586
▁егүүтг 2587
ед 2588
едийн 2589
еж 2590
ез 2591
езид 2592
▁ей 2593
ей 2594
ейн 2595
ейф 2596
ек 2597
екс 2598
ект 2599
ектив 2600
▁ел 2601
ел 2602
елл 2603
ель 2604
ем 2605
емат 2606
емент 2607
емийн 2608
▁ен 2609
ен 2610
ена 2611
енд 2612
ений 2613
енн 2614
ент 2615
ентийн 2616
енхау 2617
ены 2618
еп 2619
▁ер 2620
ер 2621
▁ёр 2622
ёр 2623
ерал 2624
ерв 2625
▁ердийн 2626
▁ердөө 2627
ерийг 2628
▁ерийн 2629
ерийн 2630
ерм 2631
ерн 2632
▁ерөн 2633
▁ерөнхий 2634
▁ерөнхийдөө 2635
▁ерөнхийлөг 2636
▁ерөнхийлөгч 2637
▁ерөнхийлөгчийн 2638
▁ерөө 2639
▁ерөөл 2640
▁ерөөлтийн 2641
▁ерөөсөө 2642
ерт 2643
▁ертөнц 2644
▁ертөнцийг 2645
▁ертөнцийн 2646
▁ертөнцөд 2647
ерусал 2648
ерын 2649
▁ес 2650
ес 2651
▁ёс 2652
▁ёсгүй 2653
▁есдүгээр 2654
▁ёслол 2655
▁ёслолын 2656
▁ёсны 2657
▁ёсон 2658
▁ёсоор 2659
▁есөн 2660
есс 2661
ессын 2662
ест 2663
▁ёст 2664
▁ёстой 2665
▁есү 2666
▁есүс 2667
▁есүх 2668
▁есүхэй 2669
▁ёсыг 2670
ет 2671
етийн 2672
етр 2673
етын 2674
еф 2675
ец 2676
еэ 2677
▁ж 2678
ж 2679
жаа 2680
жаар 2681
▁жаахан 2682
▁жав 2683
жав 2684
▁жавхлан 2685
жавын 2686
▁жагс 2687
▁жагсаал 2688
▁жагсаалт 2689
▁жагсаалтыг 2690
▁жад 2691
▁жак 2692
▁жал 2693
▁жалай 2694
▁жам 2695
жам 2696
▁жамсран 2697
▁жамух 2698
▁жамуха 2699
▁жамц 2700
жамц 2701
▁жан 2702
▁жанж 2703
▁жанжин 2704
▁жанжины 2705
▁жанжны 2706
▁жанцан 2707
▁жанч 2708
▁жао 2709
▁жар 2710
жар 2711
▁жаран 2712
▁жаргал 2713
жаргал 2714
▁жаргалан 2715
▁жаргалтай 2716
▁жас 2717
▁жаха 2718
▁женд 2719
женд 2720
▁жендэрийн 2721
▁жер 2722
▁жи 2723
жи 2724
▁жиб 2725
▁жив 2726
▁жиг 2727
жиг 2728
▁жигд 2729
жигн 2730
▁жигүүр 2731
жид 2732
▁жиж 2733
жиж 2734
▁жижиг 2735
▁жижигхэн 2736
▁жий 2737
жийн 2738
▁жил 2739
жил 2740
▁жилд 2741
▁жилдээ 2742
жилж 2743
▁жилийн 2744
жилт 2745
жилтийн 2746
▁жилүүдэд 2747
▁жилээ 2748
▁жилээр 2749
▁жилээс 2750
▁жим 2751
▁жимс 2752
▁жимсний 2753
▁жин 2754
жин 2755
жингийн 2756
жинд 2757
▁жинхэнэ 2758
▁жир 2759
жир 2760
▁жирийн 2761
▁жирэм 2762
▁жирэмсэн 2763
▁жих 2764
жих 2765
▁жич 2766
▁жиш 2767
▁жишиг 2768
▁жишээ 2769
▁жишээг 2770
▁жишээл 2771
▁жишээлбэл 2772
▁жишээтэй 2773
▁жнь 2774
▁жо 2775
▁жол 2776
▁жолоо 2777
▁жолоод 2778
▁жолооч 2779
▁жон 2780
▁жонон 2781
▁жор 2782
▁жорж 2783
▁жоу 2784
жоу 2785
жсан 2786
жсөн 2787
жсэн 2788
▁жу 2789
▁жун 2790
▁жуншушэн 2791
▁жур 2792
▁журам 2793
▁журмаар 2794
▁журмыг 2795
▁журмын 2796
▁жуу 2797
▁жуул 2798
жуулах 2799
жуулж 2800
жуур 2801
жухуй 2802
▁жү 2803
▁жүж 2804
▁жүжгийн 2805
▁жүжиг 2806
▁жүжигчид 2807
▁жүжигчин 2808
▁жүжигчний 2809
▁жүн 2810
▁жүр 2811
▁жүрчид 2812
жүүлж 2813
жүүлэх 2814
жүүр 2815
жүхүй 2816
▁жэн 2817
жээ 2818
жээд 2819
▁жя 2820
▁жян 2821
▁жянь 2822
▁з 2823
з 2824
▁за 2825
за 2826
▁заа 2827
заа 2828
▁заав 2829
▁заавал 2830
▁заавар 2831
▁зааг 2832
▁заадаг 2833
▁зааж 2834
▁заал 2835
▁заалт 2836
▁заалтыг 2837
▁заан 2838
▁зааны 2839
▁заар 2840
заар 2841
▁заасан 2842
▁заах 2843
▁зав 2844
▁завгүй 2845
▁завсар 2846
▁завсрын 2847
▁завхан 2848
▁заг 2849
▁загал 2850
▁загалмай 2851
▁загалмайтны 2852
▁загас 2853
▁загасны 2854
▁загвар 2855
▁загн 2856
▁зад 2857
зад 2858
▁зай 2859
▁зайл 2860
▁зайлсхий 2861
▁зайлсхийх 2862
▁зайлшгүй 2863
▁зайсан 2864
▁зайтай 2865
▁зал 2866
▁залб 2867
▁залбир 2868
▁залг 2869
▁залгамж 2870
▁залгамжил 2871
▁залгамжилжээ 2872
▁залгамжилсан 2873
▁залгамжлагч 2874
▁залгамжлуулжээ 2875
▁залж 2876
▁залр 2877
▁залуу 2878
▁залуугийн 2879
▁залуус 2880
▁залуучууд 2881
▁залуучуудын 2882
▁залх 2883
▁заль 2884
▁зам 2885
▁замаар 2886
▁замаас 2887
▁замбар 2888
▁замбараагүй 2889
▁замд 2890
▁замдаа 2891
▁замыг 2892
▁замын 2893
▁зан 2894
зан 2895
▁зана 2896
▁занал 2897
▁заналхий 2898
▁занг 2899
▁занги 2900
▁занд 2901
▁зантай 2902
▁заншил 2903
▁зар 2904
зар 2905
▁зарга 2906
▁зардаг 2907
▁зардал 2908
▁зарж 2909
▁зарим 2910
▁заримдаа 2911
▁заримыг 2912
▁зарл 2913
▁зарлав 2914
▁зарлиг 2915
▁зарлигаар 2916
▁зарлигийг 2917
▁зарц 2918
▁зарцуул 2919
▁зарцуулах 2920
▁зарч 2921
▁зарчим 2922
▁зарчм 2923
▁зарчмыг 2924
▁зарчмын 2925
▁зас 2926
▁засаад 2927
▁засаг 2928
▁засаглал 2929
▁засаглалыг 2930
▁засаглалын 2931
▁засагт 2932
▁засагчийн 2933
▁засаж 2934
▁засал 2935
▁засан 2936
▁засах 2937
▁засахад 2938
▁засвар 2939
▁засгийг 2940
▁засгийн 2941
▁засдаг 2942
▁заслыг 2943
▁заслын 2944
▁засна 2945
▁засч 2946
▁зах 2947
▁захи 2948
▁захиал 2949
▁захидал 2950
▁захир 2951
▁захирагч 2952
▁захирал 2953
▁захирах 2954
▁захиргаа 2955
▁захиргааны 2956
▁захиргажээ 2957
▁захирсан 2958
▁захирч 2959
▁захын 2960
▁зая 2961
▁заяа 2962
▁заяаг 2963
▁заяасан 2964
▁заяат 2965
згий 2966
зий 2967
зин 2968
▁зо 2969
▁зов 2970
▁зовж 2971
▁зовл 2972
▁зовлон 2973
▁зовлонг 2974
▁зовоо 2975
▁зовох 2976
▁зог 2977
▁зогс 2978
▁зогсож 2979
▁зогсон 2980
▁зогсоно 2981
▁зогсоо 2982
▁зогсоод 2983
▁зогсоож 2984
▁зогсоох 2985
▁зогсох 2986
▁зогсохгүй 2987
▁зогссон 2988
▁зод 2989
▁зодож 2990
▁зол 2991
▁золг 2992
▁золиг 2993
▁золиос 2994
▁зонх 2995
▁зоо 2996
▁зоог 2997
▁зоор 2998
▁зоос 2999
▁зор 3000
▁зоргоор 3001
▁зориг 3002
▁зоригт 3003
▁зоригтой 3004
▁зорилг 3005
▁зорилго 3006
▁зорилгод 3007
▁зорилгодоо 3008
▁зорилгоо 3009
▁зорилгоор 3010
▁зорилготой 3011
▁зорилгыг 3012
▁зорилгын 3013
▁зорилт 3014
▁зорин 3015
▁зориу 3016
▁зориуд 3017
▁зориул 3018
▁зориулалт 3019
▁зориулалтаар 3020
▁зориулалттай 3021
▁зориулан 3022
▁зориулж 3023
▁зориулсан 3024
▁зорьж 3025
▁зорьсон 3026
▁зох 3027
▁зохи 3028
▁зохилд 3029
▁зохим 3030
▁зохимуй 3031
▁зохино 3032
▁зохиогч 3033
▁зохиогчийн 3034
▁зохиож 3035
▁зохиол 3036
▁зохиолд 3037
▁зохиолч 3038
▁зохиолчид 3039
▁зохиолчийн 3040
▁зохиолыг 3041
▁зохиолын 3042
▁зохион 3043
▁зохиосон 3044
▁зохиох 3045
▁зохис 3046
▁зохистой 3047
▁зохих 3048
▁зохиц 3049
▁зохицуул 3050
▁зохицуулалт 3051
▁зохицуулалтыг 3052
▁зохицуулах 3053
▁зоч 3054
▁зочид 3055
▁зочин 3056
▁зөв 3057
▁зөвл 3058
▁зөвлөгөө 3059
▁зөвлөл 3060
▁зөвлөлд 3061
▁зөвлөлийн 3062
▁зөвлөлтийн 3063
▁зөвлөмж 3064
▁зөвлөмжийг 3065
▁зөвлөх 3066
▁зөвхөн 3067
▁зөвш 3068
▁зөвшилц 3069
▁зөвшөөв 3070
▁зөвшөөр 3071
▁зөвшөөрдөг 3072
▁зөвшөөрөл 3073
▁зөвшөөрөлгүй 3074
▁зөвшөөрөх 3075
▁зөвшөөрөхгүй 3076
▁зөвшөөрсөн 3077
▁зөвшөөрч 3078
▁зөг 3079
▁зөгн 3080
▁зөн 3081
▁зөндөө 3082
▁зөө 3083
▁зөөл 3084
▁зөөлөн 3085
▁зөр 3086
▁зөрөлд 3087
▁зөрүүд 3088
▁зөрчиг 3089
▁зөрчигд 3090
▁зөрчиж 3091
▁зөрчил 3092
▁зөрчилд 3093
▁зөрчилдөөн 3094
▁зөрчилтэй 3095
▁зөрчл 3096
▁зөрчлийг 3097
▁зөрчлийн 3098
▁зөрчсөн 3099
▁зу 3100
зу 3101
▁зуг 3102
▁зугаа 3103
▁зугт 3104
▁зуз 3105
▁зузаан 3106
▁зул 3107
▁зун 3108
зун 3109
зунд 3110
▁зуны 3111
▁зур 3112
▁зураач 3113
▁зураг 3114
▁зураглал 3115
▁зурагт 3116
▁зурга 3117
▁зургаа 3118
▁зургаадугаар 3119
▁зургаан 3120
▁зургадугаар 3121
▁зургийг 3122
▁зургийн 3123
▁зурж 3124
▁зурсан 3125
▁зурхай 3126
▁зуршил 3127
▁зус 3128
▁зуу 3129
▁зуугийн 3130
▁зуун 3131
▁зуунаас 3132
▁зуунд 3133
▁зууны 3134
▁зуур 3135
▁зуураа 3136
▁зуурч 3137
▁зуурын 3138
▁зү 3139
▁зүг 3140
▁зүгийн 3141
▁зүгт 3142
▁зүгээр 3143
▁зүгээс 3144
▁зүд 3145
▁зүй 3146
зүй 3147
▁зүйг 3148
▁зүйл 3149
▁зүйлд 3150
▁зүйлийг 3151
▁зүйлийн 3152
▁зүйлс 3153
▁зүйлсийг 3154
▁зүйлсийн 3155
▁зүйлүүд 3156
▁зүйлүүдийг 3157
▁зүйлээ 3158
▁зүйлээр 3159
▁зүйлээс 3160
▁зүйн 3161
зүйн 3162
▁зүйр 3163
▁зүйтэй 3164
▁зүр 3165
▁зүрх 3166
▁зүрхийг 3167
▁зүрхний 3168
▁зүрхэнд 3169
▁зүс 3170
▁зүтг 3171
▁зүтгэж 3172
▁зүтгэл 3173
▁зүтгэсэн 3174
▁зүү 3175
▁зүүд 3176
▁зүүдэг 3177
▁зүүж 3178
▁зүүл 3179
▁зүүн 3180
▁зүүний 3181
▁зүх 3182
▁зху 3183
зыг 3184
зын 3185
▁зэ 3186
▁зэв 3187
▁зэвс 3188
▁зэвсгийн 3189
▁зэвсэг 3190
▁зэвсэгт 3191
зэг 3192
▁зэл 3193
▁зэм 3194
зэн 3195
▁зэр 3196
▁зэрг 3197
▁зэргийг 3198
▁зэргийн 3199
▁зэргээр 3200
▁зэргээс 3201
▁зэрлэг 3202
▁зэрэг 3203
▁зэрэгт 3204
▁зэрэгтэй 3205
▁зэрэгц 3206
▁зэрэгцэн 3207
▁зэрэгцээ 3208
▁зэс 3209
▁зэх 3210
▁зээ 3211
зээ 3212
▁зээл 3213
▁зээлд 3214
▁зээлийн 3215
▁зээр 3216
▁зээргэнэ 3217
▁и 3218
и 3219
иа 3220
иаг 3221
иагийн 3222
иагүй 3223
иад 3224
иал 3225
иан 3226
ианд 3227
ианы 3228
иар 3229
иас 3230
▁иб 3231
иб 3232
ибал 3233
▁ив 3234
ив 3235
ивал 3236
▁ивээ 3237
▁ивээл 3238
▁ивээн 3239
иг 3240
игаар 3241
иггүй 3242
игд 3243
игддаг 3244
игийн 3245
игтун 3246
игч 3247
игчид 3248
▁ид 3249
ид 3250
идай 3251
▁идвэл 3252
▁иддэг 3253
идийн 3254
▁идсэн 3255
▁идүүлбэл 3256
▁идүүлдэг 3257
▁идэв 3258
▁идэвх 3259
▁идэвхи 3260
▁идэвхтэй 3261
▁идэж 3262
▁идэр 3263
▁идэх 3264
▁идэш 3265
▁идээ 3266
▁идээний 3267
▁иерусал 3268
▁иж 3269
иж 3270
ижиг 3271
▁ижил 3272
▁из 3273
из 3274
изан 3275
изм 3276
измыг 3277
измын 3278
изу 3279
▁ий 3280
ий 3281
▁ийг 3282
ийг 3283
ийгийн 3284
ийгөө 3285
ийгээ 3286
ийгээр 3287
ийд 3288
ийж 3289
ийлг 3290
▁ийм 3291
ийм 3292
▁иймд 3293
▁иймэрхүү 3294
▁иймээс 3295
▁ийн 3296
ийн 3297
ийнх 3298
▁ийнхүү 3299
ийнхээ 3300
ийх 3301
ик 3302
икийн 3303
икл 3304
икт 3305
▁ил 3306
ил 3307
илаа 3308
▁илб 3309
илг 3310
илго 3311
илгоо 3312
илгыг 3313
илгын 3314
▁илгээ 3315
▁илгээв 3316
▁илгээж 3317
▁илгээжүхүй 3318
▁илгээрүүн 3319
▁илгээсэн 3320
▁илд 3321
илд 3322
▁илдэн 3323
▁илж 3324
илж 3325
▁илжиг 3326
▁илжигний 3327
или 3328
илийн 3329
илл 3330
илон 3331
илоо 3332
илох 3333
▁илр 3334
▁илрэл 3335
илсон 3336
▁илт 3337
илт 3338
▁илтг 3339
▁илтгэл 3340
▁илүү 3341
▁илүүд 3342
▁илүүтэй 3343
▁илүүтэйгээр 3344
илц 3345
▁илч 3346
▁илчлэг 3347
илын 3348
иль 3349
▁илэр 3350
▁илэрдэг 3351
▁илэрнэ 3352
▁илэрсэн 3353
▁илэрхий 3354
▁илэрхийл 3355
▁илэрхийлдэг 3356
▁илэрхийлж 3357
▁илэрхийлсэн 3358
▁илэрхийлэл 3359
▁илэрхийлэх 3360
▁им 3361
им 3362
имал 3363
имд 3364
имийн 3365
имуй 3366
▁ин 3367
ин 3368
ина 3369
▁инг 3370
инг 3371
ингийн 3372
▁ингэж 3373
▁ингэснээр 3374
▁ингэхдээ 3375
▁ингэхлээр 3376
▁ингэхэд 3377
▁ингээд 3378
▁инд 3379
инд 3380
индаа 3381
▁инж 3382
▁инжен 3383
▁инженер 3384
ини 3385
иний 3386
ино 3387
▁инст 3388
▁инстит 3389
▁институ 3390
▁интер 3391
▁интерн 3392
▁интернет 3393
▁ину 3394
▁инү 3395
инч 3396
инчин 3397
ины 3398
инь 3399
▁инээ 3400
▁инээд 3401
▁инээдэм 3402
▁инээж 3403
▁инээл 3404
▁инээмсэг 3405
ио 3406
иод 3407
▁ион 3408
иор 3409
иос 3410
ип 3411
ипп 3412
▁ир 3413
ир 3414
иран 3415
▁ирвэй 3416
▁ирвэл 3417
▁ирвээс 3418
▁иргэд 3419
▁иргэдийг 3420
▁иргэдийн 3421
▁иргэдэд 3422
▁иргэн 3423
▁иргэнд 3424
▁иргэний 3425
▁иргэнийг 3426
▁иргэнш 3427
▁иргэншил 3428
▁ирдэг 3429
▁ирж 3430
▁иржээ 3431
ири 3432
ирийн 3433
▁ирлээ 3434
▁ирмүй 3435
▁ирнэ 3436
▁ирснийг 3437
▁ирсэн 3438
ирч 3439
ирын 3440
▁ирэв 3441
▁ирэн 3442
▁ирэх 3443
▁ирэхгүй 3444
▁ирэхэд 3445
▁ирэхээр 3446
▁ирээгүй 3447
▁ирээд 3448
▁ирээдүй 3449
▁ирээдүйд 3450
▁ирээдүйн 3451
▁ис 3452
ис 3453
исан 3454
▁исгэлэн 3455
иск 3456
▁ислам 3457
▁испан 3458
▁испани 3459
▁испанийн 3460
исс 3461
ист 3462
истийн 3463
истууд 3464
исын 3465
▁ит 3466
ит 3467
▁итал 3468
▁итали 3469
▁италид 3470
▁италийн 3471
итан 3472
▁итг 3473
итг 3474
▁итгэдэг 3475
▁итгэж 3476
▁итгэл 3477
▁итгэлтэй 3478
▁итгэмж 3479
▁итгэсэн 3480
▁итгэх 3481
▁итгэхгүй 3482
итой 3483
иу 3484
иуд 3485
иудад 3486
иудыг 3487
иудын 3488
иул 3489
иулах 3490
иулж 3491
иун 3492
иур 3493
иф 3494
▁их 3495
их 3496
▁ихийг 3497
▁ихс 3498
▁ихтэй 3499
▁ихэвчлэн 3500
▁ихэд 3501
▁ихэнх 3502
▁ихэнхдээ 3503
▁ихэнхийг 3504
▁ихэс 3505
▁ихээр 3506
▁ихээхэн 3507
иц 3508
▁ич 3509
ич 3510
▁ичин 3511
▁ичих 3512
▁иш 3513
иш 3514
ишиг 3515
▁ишлэл 3516
ия 3517
▁й 3518
й 3519
▁к 3520
к 3521
ка 3522
▁каб 3523
▁кай 3524
▁кал 3525
▁каль 3526
▁кам 3527
▁камер 3528
▁кан 3529
▁каннаа 3530
▁кап 3531
▁капит 3532
▁капитал 3533
▁кар 3534
▁карл 3535
▁карт 3536
▁карьер 3537
▁кас 3538
▁кат 3539
▁католик 3540
▁кей 3541
▁кенн 3542
▁кеннед 3543
▁кеннеди 3544
кер 3545
▁ки 3546
▁киев 3547
кийг 3548
кийн 3549
▁кин 3550
▁кино 3551
▁киног 3552
▁кинонд 3553
▁киноны 3554
▁кир 3555
▁кл 3556
▁клин 3557
▁км 3558
ко 3559
ков 3560
▁кол 3561
▁колл 3562
▁коллеж 3563
▁колон 3564
▁колони 3565
▁колум 3566
▁ком 3567
▁команд 3568
▁комис 3569
▁комисс 3570
▁комм 3571
▁коммун 3572
▁коммунист 3573
▁комп 3574
▁компан 3575
▁компани 3576
▁компанид 3577
▁компаний 3578
▁компанийн 3579
▁компанит 3580
▁компаниуд 3581
▁компьютер 3582
▁кон 3583
▁конвен 3584
▁конвенц 3585
▁конг 3586
▁конгр 3587
▁конгрессын 3588
▁конс 3589
▁констан 3590
▁константин 3591
▁константиноп 3592
▁конц 3593
▁концерт 3594
▁кор 3595
▁коф 3596
▁кофе 3597
▁кр 3598
кс 3599
кт 3600
▁ку 3601
▁куб 3602
▁кур 3603
▁л 3604
л 3605
▁ла 3606
ла 3607
лаа 3608
лаагүй 3609
лаад 3610
лаар 3611
лаараа 3612
лаас 3613
лаасаа 3614
лаач 3615
▁лаб 3616
▁лабор 3617
▁лаборатор 3618
▁лав 3619
лав 3620
лаваас 3621
лавал 3622
▁лаг 3623
лаг 3624
лага 3625
лагаа 3626
лагаар 3627
лагаас 3628
лагад 3629
лагд 3630
лагдав 3631
лагдаж 3632
лагдан 3633
лагдана 3634
лагдах 3635
лагддаг 3636
лагдсан 3637
лагийн 3638
лагтун 3639
лагч 3640
лагчид 3641
лагыг 3642
лагын 3643
лад 3644
ладаг 3645
лаж 3646
лажээ 3647
▁лай 3648
лай 3649
лал 3650
лалаа 3651
лалд 3652
лалз 3653
лалт 3654
лалтай 3655
лалтын 3656
лалыг 3657
▁лалын 3658
лалын 3659
▁лам 3660
лам 3661
▁ламаас 3662
▁ламыг 3663
▁ламын 3664
▁лан 3665
лан 3666
лана 3667
ланд 3668
▁лар 3669
лас 3670
ласан 3671
▁лат 3672
▁латин 3673
лах 3674
лахад 3675
лахгүй 3676
лахыг 3677
лахын 3678
▁лг 3679
лг 3680
лга 3681
лган 3682
▁лгбт 3683
▁лгбти 3684
лгийг 3685
лгуул 3686
лд 3687
лдог 3688
лдөг 3689
▁ле 3690
▁лек 3691
▁лекц 3692
▁лен 3693
▁лес 3694
лет 3695
лж 3696
▁ли 3697
ли 3698
▁либ 3699
▁либерал 3700
лиг 3701
лийг 3702
лийн 3703
▁лим 3704
▁лин 3705
лин 3706
▁линк 3707
▁линколь 3708
ллийг 3709
ллийн 3710
▁ло 3711
лов 3712
▁лог 3713
лог 3714
логд 3715
логдсон 3716
логч 3717
лодог 3718
лож 3719
лол 3720
лон 3721
лоо 3722
лоод 3723
лоор 3724
лор 3725
лосон 3726
лох 3727
лөв 3728
лөг 3729
лөгд 3730
лөгдсөн 3731
лөгөө 3732
лөгч 3733
лөгчид 3734
лөж 3735
лөл 3736
лөн 3737
лөө 3738
лөөд 3739
лөөр 3740
лөөс 3741
лөр 3742
лөсөн 3743
лөх 3744
лсан 3745
лсэн 3746
лт 3747
▁лу 3748
▁лув 3749
▁лувсан 3750
▁лувсанд 3751
▁лугаа 3752
▁луу 3753
▁лууван 3754
лууд 3755
луудыг 3756
луул 3757
луулан 3758
луулах 3759
луулдаг 3760
луулж 3761
луулжээ 3762
луулна 3763
луулсан 3764
▁лүгээ 3765
▁лүү 3766
лүү 3767
лүүд 3768
лүүдийг 3769
лүүлж 3770
лүүлсэн 3771
лүүлэх 3772
▁лх 3773
лх 3774
▁лхаг 3775
лыг 3776
лын 3777
ль 3778
лэ 3779
лэв 3780
лэвэл 3781
лэг 3782
лэгд 3783
лэгддэг 3784
лэгдсэн 3785
лэгдэж 3786
лэгдэн 3787
лэгдэх 3788
лэгийн 3789
лэгч 3790
лэгчдийн 3791
лэгчид 3792
лэгээ 3793
лэдэг 3794
лэж 3795
лэжээ 3796
лэл 3797
лэлд 3798
лэлийг 3799
лэлийн 3800
лэлт 3801
лэлтийг 3802
лэлтийн 3803
лэлтэй 3804
лэм 3805
лэн 3806
лэнэ 3807
лэсэн 3808
лэх 3809
лэхгүй 3810
лэхийг 3811
лэхэд 3812
▁лээ 3813
лээ 3814
лээгүй 3815
лээд 3816
лээр 3817
лээрээ 3818
лээс 3819
▁лю 3820
▁людов 3821
▁лян 3822
▁м 3823
м 3824
▁ма 3825
ма 3826
▁маа 3827
маа 3828
▁маалд 3829
▁маалдий 3830
▁маан 3831
▁маань 3832
маар 3833
маас 3834
▁маг 3835
маг 3836
▁магад 3837
▁магадгүй 3838
▁магадлал 3839
▁магадлалтай 3840
▁магадлан 3841
▁магис 3842
▁магистр 3843
▁магистрын 3844
▁магн 3845
▁магнай 3846
▁магт 3847
▁магтаал 3848
▁магтан 3849
магц 3850
▁мад 3851
▁маж 3852
▁май 3853
май 3854
▁майк 3855
▁мак 3856
▁макед 3857
▁македоны 3858
▁мал 3859
мал 3860
▁малаа 3861
▁малгай 3862
▁малт 3863
▁малчид 3864
▁малчин 3865
▁малын 3866
▁ман 3867
ман 3868
▁манай 3869
▁манайд 3870
▁манайх 3871
▁манайхан 3872
▁манд 3873
манд 3874
▁мандал 3875
▁манж 3876
▁манжийн 3877
▁манзушир 3878
▁манлай 3879
▁ману 3880
маны 3881
▁мань 3882
▁мар 3883
мар 3884
▁маргаа 3885
▁маргаан 3886
▁маргааныг 3887
▁маргааш 3888
▁маргал 3889
▁марк 3890
▁маркс 3891
▁март 3892
▁мартаж 3893
▁мартахгүй 3894
▁мартсан 3895
▁мас 3896
▁мастер 3897
▁мат 3898
▁математик 3899
▁математикийн 3900
▁матер 3901
▁материал 3902
▁материаллаг 3903
▁материалыг 3904
▁мах 3905
▁махан 3906
▁махбод 3907
▁махн 3908
▁махны 3909
▁махыг 3910
▁маш 3911
▁машид 3912
▁машин 3913
▁машины 3914
▁мая 3915
▁маяг 3916
▁маягаар 3917
▁маягийн 3918
мб 3919
▁мбс 3920
▁ме 3921
▁медал 3922
▁медаль 3923
▁мен 3924
▁менеж 3925
▁менежер 3926
▁менежм 3927
▁менежмент 3928
▁менежментээр 3929
▁метал 3930
▁метр 3931
▁мех 3932
▁механ 3933
▁механизм 3934
▁механизмыг 3935
▁мехтаа 3936
мж 3937
мжил 3938
▁ми 3939
ми 3940
мид 3941
мийг 3942
мийн 3943
▁мик 3944
▁микр 3945
▁мил 3946
▁мин 3947
мин 3948
▁минжүүр 3949
▁миний 3950
▁минийх 3951
▁минут 3952
▁минутын 3953
▁минү 3954
▁минь 3955
▁мир 3956
▁мирзаа 3957
▁миш 3958
▁мнт 3959
▁мог 3960
мог 3961
▁могой 3962
▁могойн 3963
могц 3964
▁мод 3965
▁модны 3966
▁модон 3967
▁модыг 3968
мой 3969
мол 3970
▁мон 3971
мон 3972
▁монгол 3973
▁монголд 3974
▁монголжин 3975
▁монголоор 3976
▁монголчууд 3977
▁монголчуудад 3978
▁монголчуудыг 3979
▁монголчуудын 3980
▁монголыг 3981
▁монголын 3982
моор 3983
▁мор 3984
мор 3985
▁морд 3986
▁мордож 3987
▁морийг 3988
▁морил 3989
▁морин 3990
▁морины 3991
▁морио 3992
▁морь 3993
▁морьд 3994
▁морьт 3995
▁моск 3996
▁мот 3997
▁мох 3998
▁мө 3999
▁мөг 4000
▁мөгөөр 4001
▁мөл 4002
▁мөлт 4003
▁мөлтөр 4004
▁мөн 4005
мөн 4006
▁мөнгийг 4007
▁мөнгө 4008
▁мөнгөн 4009
▁мөнгөний 4010
▁мөнгөө 4011
▁мөнгөөр 4012
▁мөнгөтэй 4013
▁мөнх 4014
▁мөнхийн 4015
▁мөнхөд 4016
▁мөнхүү 4017
▁мөр 4018
мөр 4019
▁мөрг 4020
▁мөргөж 4021
▁мөргөл 4022
▁мөргөлд 4023
▁мөргөлдөөн 4024
▁мөргөлдөөний 4025
▁мөргөлийн 4026
▁мөргөх 4027
▁мөрд 4028
▁мөрдөн 4029
▁мөрдөх 4030
▁мөрийг 4031
▁мөрний 4032
▁мөрнийг 4033
▁мөрөн 4034
▁мөрөнд 4035
▁мөрөө 4036
▁мөрөөд 4037
▁мөрөөдөл 4038
▁мөрт 4039
▁мөртлөө 4040
▁мөс 4041
мөс 4042
▁мөсөн 4043
мөсөн 4044
▁мөх 4045
▁мөхтаа 4046
▁мөч 4047
▁мөчид 4048
мс 4049
мсэг 4050
▁му 4051
му 4052
▁муг 4053
▁муж 4054
▁мужид 4055
▁мужийн 4056
▁муз 4057
▁музей 4058
муй 4059
▁мул 4060
▁мун 4061
▁мундаг 4062
▁мунх 4063
▁мунхаг 4064
▁мур 4065
▁мус 4066
▁мусуль 4067
▁мусульман 4068
▁мут 4069
▁муу 4070
▁мууд 4071
▁муудаж 4072
▁муутай 4073
▁муухай 4074
▁мух 4075
▁мухали 4076
▁мухар 4077
▁мухул 4078
▁мушг 4079
▁мү 4080
мү 4081
мүй 4082
▁мх 4083
мыг 4084
мын 4085
▁мэ 4086
мэ 4087
▁мэг 4088
мэг 4089
мэгц 4090
▁мэд 4091
мэд 4092
▁мэддэг 4093
▁мэддэггүй 4094
▁мэдлийг 4095
▁мэдлэг 4096
▁мэдлэгийг 4097
▁мэдлэгийн 4098
▁мэдлэгтэй 4099
▁мэдлээ 4100
▁мэдмүй 4101
▁мэднэ 4102
▁мэдр 4103
▁мэдрэлийн 4104
▁мэдрэмж 4105
▁мэдрэмжтэй 4106
▁мэдрэх 4107
▁мэдрэхүй 4108
▁мэдрэхүйн 4109
▁мэдсэн 4110
▁мэдтүгэй 4111
▁мэдүүл 4112
▁мэдэв 4113
▁мэдэг 4114
▁мэдэгд 4115
▁мэдэгдэж 4116
▁мэдэгдэх 4117
▁мэдэгдэхгүй 4118
▁мэдэгч 4119
▁мэдэж 4120
▁мэдэл 4121
▁мэдэлд 4122
▁мэдэлтэй 4123
▁мэдэр 4124
▁мэдэрдэг 4125
▁мэдэрсэн 4126
▁мэдэрч 4127
▁мэдэх 4128
▁мэдэхгүй 4129
▁мэдэхийн 4130
▁мэдэхүй 4131
▁мэдэхүйн 4132
▁мэдэхэд 4133
▁мэдээ 4134
▁мэдээг 4135
▁мэдээгүй 4136
▁мэдээд 4137
▁мэдээж 4138
▁мэдээл 4139
▁мэдээллийг 4140
▁мэдээллийн 4141
▁мэдээлэл 4142
▁мэл 4143
мэл 4144
мэлз 4145
▁мэлиг 4146
▁мэн 4147
мэн 4148
▁мэнг 4149
▁мэнгэт 4150
▁мэнгэтийн 4151
▁мэнд 4152
▁мэндийн 4153
▁мэндэд 4154
▁мэндэлжээ 4155
▁мэнь 4156
▁мэө 4157
▁мэр 4158
мэр 4159
▁мэрг 4160
▁мэргид 4161
▁мэргэд 4162
▁мэргэж 4163
▁мэргэжил 4164
▁мэргэжилтэй 4165
▁мэргэжилтэн 4166
▁мэргэжлийг 4167
▁мэргэжлийн 4168
▁мэргэжлээр 4169
▁мэргэн 4170
▁мэргэш 4171
▁мэргэшсэн 4172
▁мэс 4173
▁мэт 4174
▁мэтг 4175
▁мэтийн 4176
▁мэтээр 4177
▁мэх 4178
мээ 4179
мээр 4180
▁мя 4181
▁мягмар 4182
▁мян 4183
▁мянга 4184
▁мянган 4185
▁н 4186
н 4187
▁на 4188
на 4189
наа 4190
▁наад 4191
▁наадам 4192
▁наадамд 4193
▁наалд 4194
наар 4195
наас 4196
наасаа 4197
▁нааш 4198
▁нав 4199
▁навч 4200
▁навчны 4201
▁наг 4202
▁нагац 4203
▁над 4204
▁надаар 4205
▁надаас 4206
▁надад 4207
▁надтай 4208
▁надыг 4209
наж 4210
нажээ 4211
▁най 4212
▁найд 4213
▁найдаж 4214
▁найдвар 4215
▁найдвартай 4216
▁найз 4217
▁найзууд 4218
▁найм 4219
▁наймаа 4220
▁найман 4221
▁найманы 4222
▁наймдугаар 4223
▁найр 4224
▁найраг 4225
▁найрагч 4226
▁найрал 4227
▁найралт 4228
▁найрам 4229
▁найрамдах 4230
▁найруулагч 4231
▁найруулж 4232
▁найруулсан 4233
▁нал 4234
▁нам 4235
▁намайг 4236
▁наман 4237
▁намар 4238
▁намжил 4239
▁намрын 4240
▁намтар 4241
▁намуудын 4242
▁намын 4243
▁нан 4244
нан 4245
▁нангиад 4246
▁нанд 4247
▁нандин 4248
▁наполе 4249
▁наполеон 4250
▁нар 4251
▁нараа 4252
▁нараас 4253
▁наран 4254
▁наранд 4255
▁нарий 4256
▁нарийв 4257
▁нарийн 4258
▁нарны 4259
▁нарт 4260
▁нартай 4261
▁нарыг 4262
▁нарын 4263
▁нас 4264
▁насаа 4265
▁насаараа 4266
▁насан 4267
насан 4268
▁насанд 4269
▁насандаа 4270
▁наснаас 4271
▁насны 4272
▁наст 4273
▁настай 4274
▁настайдаа 4275
▁насыг 4276
▁нах 4277
нах 4278
▁нац 4279
▁нацагд 4280
▁нацагдорж 4281
▁начин 4282
▁ная 4283
▁наян 4284
▁нд 4285
нд 4286
ндаа 4287
▁не 4288
нес 4289
ни 4290
▁ниг 4291
▁нигуур 4292
▁нигүүлс 4293
▁нигүүлсэгч 4294
▁нигүүлсэгчийн 4295
▁нид 4296
▁ний 4297
ний 4298
▁нийг 4299
нийг 4300
▁нийгм 4301
▁нийгмийг 4302
▁нийгмийн 4303
▁нийгэм 4304
▁нийгэмд 4305
▁нийгэмлэг 4306
▁нийл 4307
▁нийлж 4308
▁нийлмэл 4309
▁нийлүүлэн 4310
▁нийлээд 4311
нийн 4312
▁нийслэл 4313
▁нийслэлд 4314
▁нийслэлийн 4315
▁нийт 4316
▁нийтийг 4317
▁нийтийн 4318
▁нийтлэг 4319
▁нийтлэл 4320
▁нийтэд 4321
▁нийц 4322
▁нийцсэн 4323
▁нийцэж 4324
▁ник 4325
▁нил 4326
▁нилээд 4327
▁ним 4328
▁нимгэн 4329
▁нин 4330
▁нир 4331
▁нис 4332
▁нисэх 4333
▁ниш 4334
▁но 4335
но 4336
▁нов 4337
▁ног 4338
ног 4339
▁ногоо 4340
▁ногоог 4341
▁ногоон 4342
▁ногооны 4343
▁ноё 4344
▁ноёд 4345
▁ноён 4346
▁ноёны 4347
▁ноёрх 4348
▁ной 4349
▁нойр 4350
нол 4351
▁ном 4352
ном 4353
▁номд 4354
▁номлол 4355
▁номлосон 4356
▁номонд 4357
▁номоо 4358
▁номтой 4359
▁номун 4360
▁номх 4361
▁номхон 4362
▁номхотг 4363
▁номч 4364
▁номыг 4365
▁номын 4366
▁ноо 4367
ноо 4368
ноор 4369
▁ноос 4370
ноос 4371
▁нор 4372
нор 4373
▁норов 4374
норов 4375
▁нот 4376
▁нотлох 4377
▁нотол 4378
▁нох 4379
нох 4380
▁нохой 4381
▁нохойн 4382
▁ноц 4383
▁ноцтой 4384
нө 4385
▁нөг 4386
▁нөгөө 4387
▁нөгөөх 4388
▁нөгч 4389
▁нөгчвэй 4390
▁нөл 4391
▁нөлөө 4392
▁нөлөөг 4393
▁нөлөөгөөр 4394
▁нөлөөл 4395
▁нөлөөлдөг 4396
▁нөлөөлж 4397
▁нөлөөлөл 4398
▁нөлөөлөх 4399
▁нөлөөлсөн 4400
▁нөлөөтэй 4401
▁нөм 4402
▁нөмөр 4403
▁нөө 4404
нөөр 4405
нөөс 4406
▁нөөц 4407
▁нөөцийн 4408
▁нөх 4409
▁нөхд 4410
▁нөхдийн 4411
▁нөхдөө 4412
▁нөхөд 4413
▁нөхөж 4414
▁нөхөн 4415
▁нөхөр 4416
▁нөхөрлөл 4417
▁нөхр 4418
▁нөхрийн 4419
▁нөхц 4420
▁нөхцөл 4421
▁нөхцөлд 4422
▁нөхцөлийг 4423
нт 4424
▁ну 4425
▁нуг 4426
▁нугал 4427
▁нул 4428
▁нулим 4429
▁нулимс 4430
▁нум 4431
▁нур 4432
▁нуруу 4433
▁нуруун 4434
▁нурууны 4435
▁нут 4436
▁нутаг 4437
▁нутагт 4438
▁нутагтаа 4439
▁нутгаа 4440
▁нутгаар 4441
▁нутгаас 4442
▁нутгийг 4443
▁нутгийн 4444
▁нуу 4445
▁нуугд 4446
▁нуугдаж 4447
нууд 4448
нуудын 4449
▁нууж 4450
▁нуур 4451
нуур 4452
▁нуурт 4453
▁нуурын 4454
▁нууц 4455
▁нууцыг 4456
▁нух 4457
▁нү 4458
нү 4459
▁нүб 4460
▁нүг 4461
▁нүгэл 4462
▁нүгэлт 4463
▁нүгэлтэн 4464
▁нүд 4465
▁нүдийг 4466
▁нүдний 4467
▁нүдтэй 4468
▁нүдэн 4469
▁нүдэнд 4470
▁нүдээ 4471
▁нүдээр 4472
▁нүдээрээ 4473
▁нүү 4474
▁нүүд 4475
нүүд 4476
нүүдийг 4477
нүүдийн 4478
▁нүүдлийн 4479
▁нүүдэл 4480
▁нүүдэлчдийн 4481
▁нүүдэлчид 4482
▁нүүдэлчин 4483
▁нүүж 4484
▁нүүл 4485
▁нүүр 4486
▁нүүрийг 4487
▁нүүрний 4488
▁нүүрс 4489
▁нүүрээ 4490
▁нүх 4491
▁нүц 4492
▁нүцгэн 4493
▁ны 4494
ны 4495
ныг 4496
нын 4497
▁нь 4498
нь 4499
▁нью 4500
нэ 4501
▁нэв 4502
▁нэвт 4503
▁нэвтр 4504
▁нэвтрүүл 4505
▁нэвтрүүлгийн 4506
▁нэвтрүүлсэн 4507
▁нэвтрүүлэг 4508
▁нэвтрүүлэгт 4509
▁нэвтрүүлэх 4510
▁нэвтрэн 4511
▁нэвтэр 4512
▁нэвтэрхий 4513
▁нэг 4514
▁нэгд 4515
▁нэгдлийн 4516
▁нэгдмэл 4517
▁нэгдсэн 4518
▁нэгдүгээр 4519
▁нэгдүгээрт 4520
▁нэгдэж 4521
▁нэгдэл 4522
▁нэгдэн 4523
▁нэгж 4524
▁нэгийг 4525
▁нэгний 4526
▁нэгнийг 4527
▁нэгтг 4528
▁нэгтгэж 4529
▁нэгтгэн 4530
▁нэгтэй 4531
▁нэгэн 4532
▁нэгэнд 4533
▁нэгэнт 4534
▁нэгэнтэй 4535
▁нэгэнтээ 4536
▁нэгээс 4537
▁нэгээхэн 4538
нэж 4539
▁нэл 4540
нэл 4541
▁нэлээд 4542
▁нэм 4543
нэм 4544
▁нэмж 4545
▁нэмсэн 4546
▁нэмэгд 4547
▁нэмэгдсэн 4548
▁нэмэгдүүлж 4549
▁нэмэгдүүлэх 4550
▁нэмэгдэж 4551
▁нэмэгдэл 4552
▁нэмэгдэнэ 4553
▁нэмэлт 4554
▁нэмэр 4555
▁нэмэх 4556
▁нэн 4557
▁нэр 4558
нэр 4559
▁нэрв 4560
▁нэрийг 4561
▁нэрийд 4562
▁нэрийдэв 4563
▁нэрийн 4564
▁нэрлэгдсэн 4565
▁нэрлэдэг 4566
▁нэрлэж 4567
▁нэрлэжээ 4568
▁нэрлэнэ 4569
▁нэрлэсэн 4570
▁нэрлэх 4571
▁нэрт 4572
▁нэртэй 4573
▁нэрээ 4574
▁нэрээр 4575
▁нэх 4576
▁нэхэж 4577
▁нэхэмж 4578
▁нээ 4579
нээ 4580
▁нээгд 4581
▁нээж 4582
▁нээл 4583
▁нээлт 4584
▁нээлтийн 4585
▁нээлттэй 4586
▁нээн 4587
нээн 4588
нээр 4589
▁нээрээ 4590
нээрээ 4591
нээс 4592
▁нээсэн 4593
нээсээ 4594
▁нээх 4595
▁ня 4596
▁нягт 4597
▁нягтлан 4598
▁нялх 4599
▁ням 4600
ням 4601
▁нямбай 4602
▁нян 4603
▁няц 4604
▁о 4605
о 4606
▁об 4607
об 4608
▁обам 4609
▁ов 4610
ов 4611
▁овгийн 4612
овин 4613
▁овог 4614
▁овогт 4615
▁овогтой 4616
▁овогтон 4617
▁овоо 4618
▁овоог 4619
▁овоол 4620
▁овоонд 4621
▁овооны 4622
овч 4623
овын 4624
▁ог 4625
ог 4626
огд 4627
огддог 4628
огдов 4629
огдож 4630
огдоно 4631
огдох 4632
огдсон 4633
огийн 4634
▁огоор 4635
огсод 4636
▁огт 4637
огт 4638
▁огтор 4639
▁огторгуй 4640
огтун 4641
▁огтхон 4642
▁огц 4643
огц 4644
▁огцом 4645
огч 4646
огчдын 4647
огчид 4648
огчийн 4649
огш 4650
▁од 4651
од 4652
▁одлоо 4653
▁одов 4654
одог 4655
▁одож 4656
▁одон 4657
▁одоо 4658
▁одоогийн 4659
▁одоогоор 4660
▁одоогоос 4661
▁одоохондоо 4662
▁одох 4663
▁одсон 4664
▁одсонд 4665
▁оё 4666
оё 4667
оёр 4668
ож 4669
ожоу 4670
ожээ 4671
оз 4672
▁ой 4673
ой 4674
▁ойд 4675
ойд 4676
▁ойлг 4677
▁ойлгодог 4678
▁ойлгож 4679
▁ойлголт 4680
▁ойлголттой 4681
▁ойлголтыг 4682
▁ойлголц 4683
▁ойлгомжтой 4684
▁ойлгоогүй 4685
▁ойлгосон 4686
▁ойлгох 4687
▁ойлгохгүй 4688
▁ойлгуул 4689
▁ойн 4690
ойн 4691
▁ойр 4692
▁ойрад 4693
▁ойрадын 4694
▁ойролц 4695
▁ойролцоо 4696
▁ойролцоогоор 4697
▁ойрт 4698
▁ойрхон 4699
▁ойрын 4700
▁ойш 4701
ок 4702
▁ол 4703
ол 4704
▁олб 4705
▁олг 4706
▁олгогч 4707
▁олгодог 4708
▁олгож 4709
▁олгоно 4710
▁олгосон 4711
▁олгох 4712
▁олгуул 4713
▁олгуулжээ 4714
олгүй 4715
▁олд 4716
олд 4717
▁олджээ 4718
олдог 4719
▁олдох 4720
▁олдохгүй 4721
▁олдсон 4722
▁олж 4723
олж 4724
▁олжээ 4725
▁олз 4726
олз 4727
▁олзлог 4728
▁олиг 4729
олик 4730
▁олно 4731
▁олноо 4732
▁олноор 4733
▁олны 4734
▁олныг 4735
олог 4736
ологи 4737
ологийн 4738
▁ололт 4739
▁олон 4740
олон 4741
▁олонд 4742
▁олонх 4743
▁олонхдоо 4744
▁олонхи 4745
олоо 4746
▁олоогүй 4747
▁олоод 4748
▁олох 4749
▁олсон 4750
олсон 4751
олт 4752
олтой 4753
олц 4754
олын 4755
оль 4756
▁ом 4757
ом 4758
ометр 4759
омж 4760
омжгүй 4761
омжтой 4762
▁омог 4763
омуй 4764
омын 4765
▁он 4766
он 4767
▁онг 4768
онг 4769
▁онгод 4770
▁онгой 4771
онгол 4772
▁онгон 4773
▁онгоц 4774
▁онгоцны 4775
▁онгоцыг 4776
онгуй 4777
▁онд 4778
онд 4779
ондоо 4780
ондын 4781
▁ониг 4782
оно 4783
▁оновч 4784
▁оновчтой 4785
▁оногд 4786
▁онол 4787
▁онолыг 4788
▁онолын 4789
▁онон 4790
▁оноо 4791
▁оноос 4792
▁онош 4793
онт 4794
▁онуудад 4795
онх 4796
онхор 4797
▁онц 4798
▁онцгой 4799
▁онцлог 4800
▁онцлогийг 4801
▁онцлогтой 4802
▁оны 4803
оны 4804
▁оньс 4805
▁оо 4806
оо 4807
оог 4808
оогоо 4809
оогоод 4810
оогоор 4811
оогүй 4812
оод 4813
оодог 4814
оож 4815
оол 4816
оолд 4817
оолоо 4818
оон 4819
оонд 4820
ооно 4821
ооноос 4822
ооны 4823
▁оор 4824
оор 4825
оорой 4826
оороо 4827
▁оос 4828
оос 4829
оосой 4830
оосон 4831
оосоо 4832
оотой 4833
оох 4834
ооч 4835
оп 4836
▁ор 4837
ор 4838
▁орвол 4839
▁орг 4840
▁орган 4841
▁органик 4842
▁оргил 4843
▁оргосон 4844
▁орд 4845
▁ордны 4846
▁ордог 4847
▁ордон 4848
▁ордонд 4849
▁ордос 4850
▁орж 4851
орж 4852
оржийн 4853
▁оржээ 4854
орл 4855
▁орлог 4856
▁орлого 4857
▁орлогын 4858
▁орлоо 4859
▁орн 4860
▁орно 4861
▁орноо 4862
▁орнууд 4863
▁орнуудад 4864
▁орнуудын 4865
▁орны 4866
▁орныг 4867
▁орныхоо 4868
▁оров 4869
▁орог 4870
▁орой 4871
▁оройн 4872
▁оройт 4873
▁орол 4874
▁оролд 4875
▁оролдлог 4876
▁оролдлого 4877
▁оролдож 4878
▁оролдсон 4879
▁оролц 4880
▁оролцдог 4881
▁оролцогч 4882
▁оролцогчдын 4883
▁оролцож 4884
▁оролцоо 4885
▁оролцоог 4886
▁оролцооны 4887
▁оролцоотой 4888
▁оролцох 4889
▁оролцсон 4890
▁орон 4891
▁оронд 4892
▁орондоо 4893
▁ороо 4894
▁ороогүй 4895
▁ороод 4896
▁орос 4897
▁оросууд 4898
▁оросын 4899
▁орох 4900
▁орохгүй 4901
▁ороход 4902
▁орохыг 4903
▁орсон 4904
орсон 4905
орт 4906
▁ортугай 4907
ортын 4908
▁оруул 4909
▁оруулав 4910
▁оруулалт 4911
▁оруулалтын 4912
▁оруулан 4913
▁оруулах 4914
▁оруулдаг 4915
▁оруулж 4916
▁оруулсан 4917
▁орх 4918
орх 4919
▁орхи 4920
▁орхив 4921
▁орхигд 4922
▁орхиж 4923
▁орхин 4924
▁орхино 4925
▁орхиод 4926
▁орхисон 4927
▁орхих 4928
орхой 4929
▁орхон 4930
орхон 4931
▁орч 4932
▁орчим 4933
▁орчин 4934
▁орчинд 4935
▁орчих 4936
▁орчлон 4937
▁орчмын 4938
▁орчны 4939
▁орчныг 4940
▁орчуул 4941
▁орчуулга 4942
▁орчуулж 4943
▁орш 4944
▁оршдог 4945
▁оршиж 4946
▁оршин 4947
▁оршино 4948
▁орших 4949
орын 4950
▁ос 4951
ос 4952
оск 4953
осны 4954
▁осолд 4955
осон 4956
ост 4957
осын 4958
▁от 4959
от 4960
▁отг 4961
отг 4962
▁отго 4963
▁отгон 4964
ото 4965
отой 4966
▁отр 4967
▁отчиг 4968
▁отчигин 4969
оу 4970
▁оух 4971
▁оухэз 4972
▁оф 4973
оф 4974
▁офиц 4975
▁офицер 4976
▁ох 4977
ох 4978
охгүй 4979
охдоо 4980
▁охи 4981
охи 4982
▁охид 4983
▁охидын 4984
▁охин 4985
охин 4986
охино 4987
▁охиноо 4988
▁охинтой 4989
▁охины 4990
▁охиныг 4991
оход 4992
охоор 4993
охыг 4994
охын 4995
оц 4996
оцгоо 4997
▁оч 4998
оч 4999
▁очдог 5000
▁очив 5001
▁очиж 5002
▁очин 5003
▁очир 5004
▁очих 5005
▁очиход 5006
▁очлоо 5007
▁очно 5008
▁очоод 5009
▁очсон 5010
ош 5011
ошгүй 5012
▁оюу 5013
▁оюун 5014
▁оюуны 5015
▁оюут 5016
▁оюутан 5017
▁оюутнууд 5018
▁оюутны 5019
▁ө 5020
ө 5021
▁өв 5022
өв 5023
▁өвгө 5024
▁өвгөд 5025
▁өвгөн 5026
▁өвд 5027
▁өвдөг 5028
▁өвдөж 5029
▁өвдөх 5030
▁өвдсөн 5031
▁өвлийн 5032
▁өвөг 5033
▁өвөл 5034
▁өвөө 5035
▁өвөр 5036
▁өвөрм 5037
▁өвөрмонгол 5038
▁өвөрмөц 5039
▁өвс 5040
▁өвч 5041
▁өвчил 5042
▁өвчин 5043
▁өвчинд 5044
▁өвчл 5045
▁өвчлөл 5046
▁өвчн 5047
▁өвчний 5048
▁өвчнийг 5049
▁өвчнөөр 5050
▁өвчтөн 5051
▁өвчтөний 5052
▁өвчтөнийг 5053
▁өвчтэй 5054
▁өг 5055
өг 5056
▁өгвөл 5057
өгд 5058
▁өгдөг 5059
▁өгдөггүй 5060
өгдсөн 5061
▁өгл 5062
▁өглөг 5063
▁өглөө 5064
▁өглөөний 5065
▁өгнө 5066
▁өгөв 5067
▁өгөгд 5068
▁өгөгтүн 5069
▁өгөдэй 5070
▁өгөө 5071
▁өгөөгүй 5072
▁өгөөд 5073
▁өгөөж 5074
▁өгөөмөр 5075
▁өгөөч 5076
▁өгөр 5077
▁өгөх 5078
▁өгөхгүй 5079
▁өгөхийг 5080
▁өгөхөд 5081
▁өгсөн 5082
▁өгсү 5083
өгтүн 5084
▁өгүүл 5085
▁өгүүлдэг 5086
▁өгүүлж 5087
▁өгүүлжээ 5088
▁өгүүлрүүн 5089
▁өгүүлсэн 5090
▁өгүүлэв 5091
▁өгүүлэл 5092
▁өгүүлэн 5093
▁өгүүлэх 5094
▁өгч 5095
өгч 5096
өгчид 5097
▁өгчих 5098
▁өгчээ 5099
▁өгье 5100
▁өгэдэй 5101
▁өд 5102
өд 5103
▁өдгөө 5104
▁өдий 5105
өдөг 5106
▁өдөр 5107
▁өдөрт 5108
▁өдр 5109
▁өдрийг 5110
▁өдрийн 5111
▁өдрөөс 5112
▁өдрүүдэд 5113
өдэй 5114
өж 5115
▁өл 5116
өл 5117
▁өлг 5118
өлд 5119
өлдөг 5120
өлдөр 5121
▁өлзий 5122
▁өлзийт 5123
өлөө 5124
өлөөс 5125
▁өлс 5126
▁өлсгөл 5127
▁өлсгөлөн 5128
өлт 5129
өлтийн 5130
▁өм 5131
өм 5132
▁өмгөө 5133
▁өмгөөл 5134
▁өмгөөлөгч 5135
өмж 5136
▁өмн 5137
▁өмнө 5138
▁өмнөд 5139
▁өмнөөс 5140
▁өмнөх 5141
▁өмөөр 5142
өмөр 5143
▁өмс 5144
▁өмсөж 5145
▁өмсөөд 5146
▁өмсөх 5147
▁өмссөн 5148
▁өмхий 5149
▁өмч 5150
▁өмчийн 5151
▁өмчл 5152
▁өн 5153
өн 5154
▁өнг 5155
▁өнгийн 5156
▁өнгө 5157
өнгө 5158
▁өнгөөр 5159
▁өнгөр 5160
▁өнгөрөв 5161
▁өнгөрөх 5162
▁өнгөрсөн 5163
▁өнгөрч 5164
▁өнгөрчээ 5165
▁өнгөт 5166
▁өнгөтэй 5167
▁өнд 5168
өнд 5169
▁өндөг 5170
▁өндөр 5171
▁өндөртэй 5172
өнө 5173
▁өнөө 5174
▁өнөөг 5175
▁өнөөгийн 5176
▁өнөөд 5177
▁өнөөдөр 5178
▁өнөөдрийн 5179
▁өнөөх 5180
▁өнц 5181
▁өнцөг 5182
▁өө 5183
өө 5184
өөв 5185
өөгүй 5186
▁өөд 5187
өөд 5188
өөдөг 5189
▁өөдөөс 5190
▁өөдрөг 5191
өөж 5192
өөл 5193
өөн 5194
өөнд 5195
өөний 5196
өөнөөс 5197
▁өөр 5198
өөр 5199
▁өөрийг 5200
▁өөрийгөө 5201
▁өөрийгээ 5202
▁өөрийн 5203
▁өөрийнх 5204
▁өөрийнхөө 5205
▁өөрийнхөөрөө 5206
▁өөрөө 5207
өөрөө 5208
▁өөрөөр 5209
▁өөрөөсөө 5210
▁өөрсд 5211
▁өөрсдийгөө 5212
▁өөрсдийн 5213
▁өөрсдийнхөө 5214
▁өөрсдөд 5215
▁өөрсдөдөө 5216
▁өөрсдөө 5217
▁өөрт 5218
▁өөртөө 5219
▁өөрчил 5220
▁өөрчилж 5221
▁өөрчилсөн 5222
▁өөрчл 5223
▁өөрчлөгд 5224
▁өөрчлөгддөг 5225
▁өөрчлөгдөж 5226
▁өөрчлөгдөх 5227
▁өөрчлөгдсөн 5228
▁өөрчлөлт 5229
▁өөрчлөлтийг 5230
▁өөрчлөлтүүд 5231
▁өөрчлөн 5232
▁өөрчлөх 5233
өөрэй 5234
▁өөс 5235
өөс 5236
өөсөн 5237
өөсөө 5238
▁өөх 5239
өөх 5240
▁өр 5241
өр 5242
▁өрг 5243
▁өргө 5244
▁өргөв 5245
▁өргөгдсөн 5246
▁өргөгдсөний 5247
▁өргөд 5248
▁өргөдөг 5249
▁өргөж 5250
▁өргөмж 5251
▁өргөмжил 5252
▁өргөмжилжээ 5253
▁өргөн 5254
▁өргөө 5255
▁өргөөд 5256
▁өргөөнд 5257
▁өргөс 5258
▁өргөсөн 5259
▁өргөст 5260
▁өргөтг 5261
▁өргөх 5262
▁өрн 5263
▁өрнө 5264
▁өрөв 5265
▁өрөвд 5266
▁өрөө 5267
▁өрөөл 5268
▁өрөөн 5269
▁өрөөнд 5270
▁өрөөний 5271
▁өрс 5272
▁өрсөлд 5273
▁өрсөлдөгч 5274
▁өрсөлдөөн 5275
▁өрсөлдөх 5276
▁өрт 5277
өрт 5278
▁өртөг 5279
▁өртөж 5280
▁өртөө 5281
▁өрх 5282
▁өрхийн 5283
өрч 5284
▁өрш 5285
▁өршөө 5286
▁өршөөгч 5287
▁өршөөж 5288
▁өршөөл 5289
▁өс 5290
өс 5291
▁өсвөр 5292
▁өсгөж 5293
▁өсгөн 5294
▁өсгөсөн 5295
▁өсөж 5296
▁өсөлт 5297
өсөн 5298
▁өсөх 5299
▁өссөн 5300
▁өсч 5301
▁өсчээ 5302
▁өт 5303
▁өтг 5304
▁өтгөн 5305
▁өтгөс 5306
▁өтөг 5307
өх 5308
өхгүй 5309
өхөд 5310
өхөөр 5311
өц 5312
▁өч 5313
өч 5314
▁өчиг 5315
▁өчигд 5316
▁өчигдөр 5317
▁өчүүхэн 5318
▁өшөө 5319
▁п 5320
п 5321
▁па 5322
▁паг 5323
▁пал 5324
пан 5325
▁пап 5326
▁пар 5327
▁парис 5328
▁парламен 5329
▁парламент 5330
▁парламентын 5331
▁парт 5332
▁парф 5333
▁пас 5334
▁пастор 5335
▁пат 5336
пат 5337
▁патээ 5338
▁патээш 5339
▁патээшвар 5340
▁паул 5341
▁пер 5342
пер 5343
▁перикл 5344
▁перс 5345
▁персийн 5346
▁пи 5347
пил 5348
▁пин 5349
▁пир 5350
▁пл 5351
пл 5352
▁пол 5353
пол 5354
▁поль 5355
▁польш 5356
▁поп 5357
▁популя 5358
пор 5359
▁пр 5360
▁прак 5361
▁практик 5362
▁практикт 5363
▁прог 5364
▁програм 5365
▁прод 5366
▁продакш 5367
▁продюс 5368
▁прок 5369
▁прокур 5370
▁прот 5371
▁професс 5372
▁профессор 5373
▁проц 5374
▁процесс 5375
▁прус 5376
▁пун 5377
▁пунц 5378
▁пүн 5379
▁пүр 5380
▁пүрэв 5381
▁р 5382
р 5383
ра 5384
▁раа 5385
раа 5386
раад 5387
раар 5388
раас 5389
▁раая 5390
▁рав 5391
рав 5392
равдан 5393
раг 5394
рага 5395
▁рад 5396
▁радио 5397
▁рай 5398
рай 5399
рал 5400
ралгүй 5401
ралт 5402
ралтгүй 5403
рам 5404
рамд 5405
ран 5406
рат 5407
раф 5408
▁рах 5409
рах 5410
рахгүй 5411
▁раш 5412
▁рашаан 5413
▁ред 5414
▁редак 5415
▁рей 5416
▁рейган 5417
▁рен 5418
▁реф 5419
▁рефлекс 5420
ри 5421
рий 5422
рийг 5423
рийн 5424
▁ринчин 5425
рит 5426
рих 5427
▁роб 5428
▁ром 5429
▁роман 5430
▁ромд 5431
▁ромчууд 5432
▁ромын 5433
рөг 5434
рөл 5435
рөн 5436
рөөр 5437
▁рт 5438
▁ру 5439
▁руу 5440
руу 5441
▁руугаа 5442
рууд 5443
руулах 5444
руулж 5445
руун 5446
▁рүү 5447
рүү 5448
▁рүүгээ 5449
рүүл 5450
рүүлж 5451
рүүлэх 5452
рүүн 5453
▁рүүп 5454
▁рүүпий 5455
рх 5456
рч 5457
▁ры 5458
рыг 5459
рын 5460
▁рыцар 5461
▁рыцариуд 5462
рэг 5463
рэл 5464
рэн 5465
▁рэньзун 5466
рэх 5467
рээ 5468
▁с 5469
с 5470
▁са 5471
са 5472
▁саа 5473
саа 5474
▁саад 5475
▁саар 5476
саар 5477
▁саарал 5478
▁сааргүй 5479
▁саат 5480
▁саах 5481
▁саахав 5482
▁саб 5483
▁сав 5484
▁саванд 5485
▁савыг 5486
▁саг 5487
саг 5488
сагн 5489
▁сад 5490
сад 5491
▁саж 5492
саж 5493
▁сай 5494
сай 5495
▁сайгүй 5496
▁сайд 5497
▁сайдыг 5498
▁сайдын 5499
▁сайж 5500
▁сайжир 5501
▁сайжр 5502
▁сайжруулах 5503
▁сайжруулахад 5504
▁сайжруулж 5505
▁сайн 5506
▁сайнаар 5507
▁сайныг 5508
▁сайтай 5509
▁сайтар 5510
▁сайхан 5511
сайхан 5512
▁сайхны 5513
▁сайхныг 5514
▁сайш 5515
▁сайшаалт 5516
▁сал 5517
сал 5518
▁салаа 5519
▁салбар 5520
▁салбарт 5521
▁салбарыг 5522
▁салбарын 5523
▁салгах 5524
▁салж 5525
▁салх 5526
▁салхи 5527
▁салхинд 5528
▁салшгүй 5529
▁сам 5530
▁самар 5531
▁самарканд 5532
▁самбар 5533
▁сан 5534
сан 5535
▁санаа 5536
санаа 5537
▁санааг 5538
▁санаагаа 5539
▁санаан 5540
▁санаанд 5541
▁санааны 5542
▁санаарх 5543
▁санаатай 5544
▁санаач 5545
▁санаачил 5546
▁санагд 5547
▁санагдав 5548
▁санагдаж 5549
▁санагдана 5550
▁санагдах 5551
▁санагддаг 5552
▁санагдсан 5553
▁санадаг 5554
▁санаж 5555
▁санал 5556
▁саналыг 5557
▁санамж 5558
▁санамсар 5559
▁санасан 5560
▁санах 5561
▁санв 5562
▁санваар 5563
▁санг 5564
▁сангийн 5565
сангүй 5566
▁санд 5567
санд 5568
▁сандаг 5569
▁сандагийг 5570
▁сандагийн 5571
▁сандал 5572
▁санж 5573
▁санскрит 5574
▁санскритаар 5575
▁санхүү 5576
▁санхүүгийн 5577
▁санхүүж 5578
▁санхүүжилт 5579
▁санхүүжилтийн 5580
саны 5581
саныг 5582
▁сар 5583
сар 5584
▁сараас 5585
▁саран 5586
▁сард 5587
▁сарн 5588
▁сартай 5589
▁саруул 5590
▁сарын 5591
▁сат 5592
▁сах 5593
▁сахал 5594
▁сахиж 5595
▁сахил 5596
▁сахилга 5597
▁сахиу 5598
▁сахиул 5599
▁сахиус 5600
▁сахих 5601
▁сац 5602
▁сацуу 5603
▁сая 5604
▁саяхан 5605
сб 5606
сгал 5607
сд 5608
сдийг 5609
сдийн 5610
сдөг 5611
сдыг 5612
сдын 5613
▁се 5614
се 5615
▁сей 5616
▁сек 5617
секс 5618
▁сел 5619
▁сем 5620
▁сен 5621
▁сена 5622
▁сенат 5623
▁сенатор 5624
▁си 5625
си 5626
▁сид 5627
▁сий 5628
сийг 5629
сийн 5630
▁сил 5631
▁сим 5632
▁син 5633
▁сист 5634
▁систем 5635
▁системд 5636
▁системийг 5637
▁системийн 5638
▁системтэй 5639
▁ск 5640
ск 5641
ский 5642
скийн 5643
▁слав 5644
▁см 5645
сн 5646
снаа 5647
снаар 5648
снаас 5649
сний 5650
снийг 5651
сноор 5652
сноос 5653
снөөс 5654
сны 5655
сныг 5656
снээ 5657
снээр 5658
снээс 5659
▁сог 5660
▁согт 5661
▁сод 5662
сод 5663
▁содном 5664
▁соё 5665
▁соёл 5666
▁соёлтой 5667
▁соёлыг 5668
▁соёлын 5669
▁соён 5670
▁соёол 5671
▁соёрх 5672
▁соёрхож 5673
▁соёрхол 5674
▁сой 5675
▁сол 5676
сол 5677
▁солигд 5678
▁солилц 5679
▁солио 5680
▁солиор 5681
▁солих 5682
▁солонг 5683
▁солонго 5684
▁солонгос 5685
▁соль 5686
▁сон 5687
сон 5688
▁сонг 5689
▁сонгогдсон 5690
▁сонгодог 5691
▁сонгож 5692
▁сонгол 5693
▁сонголт 5694
▁сонгон 5695
▁сонгоно 5696
▁сонгосон 5697
▁сонгох 5698
▁сонгуул 5699
▁сонгуулийн 5700
▁сонгууль 5701
▁сонгуульд 5702
▁сонин 5703
▁сонинд 5704
▁сонир 5705
▁сонирх 5706
▁сонирхдог 5707
▁сонирхлыг 5708
▁сонирхлын 5709
▁сонирхож 5710
▁сонирхол 5711
▁сонирхолтой 5712
▁сонирхон 5713
соно 5714
▁соном 5715
▁сонс 5716
▁сонсг 5717
▁сонсгол 5718
▁сонсдог 5719
▁сонсож 5720
▁сонсоод 5721
▁сонсох 5722
▁сонссон 5723
соны 5724
соныг 5725
▁соон 5726
▁соонаа 5727
соор 5728
▁сор 5729
▁сорил 5730
▁сорилт 5731
▁сох 5732
▁сохор 5733
▁соц 5734
▁социал 5735
▁социалист 5736
сөг 5737
▁сөгд 5738
сөд 5739
▁сөн 5740
сөн 5741
сөнд 5742
сөөр 5743
▁сөр 5744
▁сөрөг 5745
▁сөх 5746
▁сп 5747
▁спарт 5748
▁спорт 5749
▁спортын 5750
ср 5751
сран 5752
срын 5753
▁ст 5754
ст 5755
▁стан 5756
▁стандар 5757
▁стандарт 5758
▁стандартын 5759
▁стат 5760
▁статист 5761
▁стр 5762
▁страт 5763
▁страте 5764
▁стратеги 5765
▁стратегийн 5766
▁су 5767
су 5768
▁суб 5769
▁сув 5770
▁сувар 5771
▁сувил 5772
▁сувилагч 5773
сугай 5774
▁суд 5775
▁судал 5776
▁судалгаа 5777
▁судалгааг 5778
▁судалгаанд 5779
▁судалгааны 5780
▁судалж 5781
▁судална 5782
▁судалсан 5783
▁судар 5784
▁сударт 5785
▁судас 5786
▁судасны 5787
▁судл 5788
▁судлаа 5789
▁судлаач 5790
▁судлаачдын 5791
▁судлаачид 5792
▁судлал 5793
▁судлалын 5794
▁судлах 5795
▁судлыг 5796
▁судлын 5797
▁судрын 5798
▁сул 5799
▁султан 5800
▁сум 5801
▁суманд 5802
▁сумын 5803
▁сун 5804
сун 5805
▁сур 5806
▁сураг 5807
▁сурагч 5808
▁сурагчдад 5809
▁сурагчдыг 5810
▁сурагчдын 5811
▁сурагчид 5812
▁суралц 5813
▁суралцагч 5814
▁суралцаж 5815
▁суралцах 5816
▁суралцдаг 5817
▁суралцсан 5818
▁сурах 5819
▁сурахад 5820
▁сурвал 5821
▁сурвалж 5822
▁сурвалжил 5823
▁сурвалжтан 5824
▁сургаа 5825
▁сургаал 5826
▁сургаж 5827
▁сургалт 5828
▁сургалтад 5829
▁сургалтанд 5830
▁сургалтыг 5831
▁сургалтын 5832
▁сургамж 5833
▁сурган 5834
▁сургасан 5835
▁сургах 5836
▁сургуул 5837
▁сургуулиа 5838
▁сургуулиас 5839
▁сургуулийг 5840
▁сургуулийн 5841
▁сургуулиуд 5842
▁сургуулиудын 5843
▁сургууль 5844
▁сургуульд 5845
▁сурдаг 5846
▁сурна 5847
▁сурсан 5848
▁сурт 5849
▁суртал 5850
▁сурталчилгаа 5851
▁суртах 5852
▁суртахууны 5853
▁сурч 5854
▁суу 5855
▁суув 5856
▁сууг 5857
▁суугаа 5858
▁суугаад 5859
▁сууд 5860
▁суудаг 5861
▁суудал 5862
▁суудалд 5863
▁сууж 5864
▁суул 5865
▁суулаа 5866
▁суулга 5867
▁суулгаж 5868
▁суулгажээ 5869
▁суулгах 5870
▁сууна 5871
▁суур 5872
▁сууриа 5873
▁суурийг 5874
▁суурил 5875
▁суурилсан 5876
▁суурин 5877
▁сууринд 5878
▁суурь 5879
▁суурьтай 5880
▁суусан 5881
▁суут 5882
▁суух 5883
▁суухад 5884
▁сууц 5885
▁сү 5886
сү 5887
▁сүв 5888
сүгэй 5889
▁сүй 5890
▁сүйд 5891
▁сүйр 5892
▁сүйтг 5893
▁сүл 5894
▁сүлд 5895
▁сүлдийг 5896
▁сүлдний 5897
▁сүлжээ 5898
▁сүм 5899
▁сүмд 5900
▁сүмийг 5901
▁сүмийн 5902
▁сүн 5903
▁сүнс 5904
▁сүр 5905
▁сүрд 5906
▁сүрхий 5907
▁сүрье 5908
▁сүрэг 5909
сүрэн 5910
▁сүс 5911
▁сүсэг 5912
▁сүсэглэг 5913
▁сүсэгт 5914
▁сүсэгтэн 5915
▁сүү 5916
▁сүүг 5917
▁сүүгээр 5918
▁сүүд 5919
▁сүүдэр 5920
▁сүүдэрт 5921
▁сүүл 5922
▁сүүлд 5923
▁сүүлдээ 5924
▁сүүлийн 5925
▁сүүлч 5926
▁сүүлчийн 5927
▁сүүлчээр 5928
▁сүүлээр 5929
▁сүүн 5930
▁сүүнд 5931
▁сүүний 5932
▁сүх 5933
▁сүхбаатар 5934
▁сүхмаа 5935
▁сх 5936
схий 5937
сыг 5938
сын 5939
▁сэ 5940
▁сэв 5941
▁сэг 5942
сэг 5943
▁сэд 5944
сэд 5945
▁сэдв 5946
▁сэдвийг 5947
▁сэдэв 5948
▁сэдэвт 5949
▁сэж 5950
▁сэжиг 5951
▁сэл 5952
▁сэлб 5953
▁сэлэм 5954
▁сэлэнгэ 5955
▁сэм 5956
▁сэн 5957
сэн 5958
▁сэнг 5959
сэнгүй 5960
▁сэнгүм 5961
сэнд 5962
▁сэнх 5963
▁сэр 5964
сэр 5965
▁сэрг 5966
▁сэргий 5967
▁сэргийл 5968
▁сэргийлж 5969
▁сэргийлэх 5970
▁сэргэлэн 5971
▁сэргэн 5972
▁сэргээ 5973
▁сэргээн 5974
▁сэргээх 5975
▁сэрүүн 5976
▁сэрэмж 5977
▁сэрэн 5978
▁сэрээ 5979
▁сэт 5980
▁сэтг 5981
▁сэтгүүл 5982
▁сэтгүүлч 5983
▁сэтгэвээс 5984
▁сэтгэгдэл 5985
▁сэтгэж 5986
▁сэтгэл 5987
▁сэтгэлгээ 5988
▁сэтгэлгээний 5989
▁сэтгэлд 5990
▁сэтгэлдээ 5991
▁сэтгэлийг 5992
▁сэтгэлийн 5993
▁сэтгэлт 5994
▁сэтгэлтэй 5995
▁сэтгэлээ 5996
▁сэтгэлээр 5997
▁сэтгэлээс 5998
▁сэтгэлээсээ 5999
▁сэтгэн 6000
▁сэтгэх 6001
▁сэтэр 6002
▁сэх 6003
▁сэхээ 6004
▁сэхээр 6005
▁сэцэн 6006
сээ 6007
▁сээр 6008
сээр 6009
▁ся 6010
▁сянь 6011
▁т 6012
т 6013
▁та 6014
та 6015
▁таа 6016
таа 6017
▁таагүй 6018
▁таал 6019
▁таалагд 6020
▁таалагдсан 6021
▁таалал 6022
▁таамаг 6023
▁таамаглал 6024
▁таар 6025
▁тааралд 6026
▁таарсан 6027
▁таарч 6028
▁таатай 6029
▁тааш 6030
▁таашаал 6031
▁таблиу 6032
▁тав 6033
▁таваар 6034
▁таван 6035
▁тавдугаар 6036
▁тавиад 6037
▁тавив 6038
▁тавиг 6039
▁тавигдсан 6040
▁тавил 6041
▁тавилаа 6042
▁тавилан 6043
▁тавин 6044
▁тавина 6045
▁тавиул 6046
▁тавих 6047
▁тавцан 6048
▁тавь 6049
▁тавьдаг 6050
▁тавьж 6051
▁тавьжээ 6052
▁тавьсан 6053
▁таг 6054
таг 6055
▁тагн 6056
тад 6057
таж 6058
▁тай 6059
тай 6060
▁тайв 6061
▁тайван 6062
▁тайвш 6063
▁тайвшир 6064
тайгаа 6065
тайгаар 6066
▁тайж 6067
▁тайжийн 6068
▁тайз 6069
▁тайзан 6070
▁тайзнаа 6071
▁тайзу 6072
▁тайзун 6073
▁тайл 6074
▁тайлаг 6075
▁тайлан 6076
▁тайланг 6077
▁тайлангийн 6078
▁тайланд 6079
▁тайлах 6080
▁тайлбар 6081
▁тайлбарлаж 6082
▁тайлбарласан 6083
▁тайлбарлах 6084
▁тайлбарыг 6085
▁тайлга 6086
▁тайлж 6087
тайн 6088
▁тайчууд 6089
▁тайш 6090
▁так 6091
▁такс 6092
▁тактик 6093
▁тал 6094
тал 6095
▁талаар 6096
▁талаараа 6097
▁талаарх 6098
▁талаас 6099
▁таларх 6100
▁талб 6101
▁талбай 6102
▁талбайг 6103
▁талбайд 6104
▁талбар 6105
▁талбарт 6106
▁талд 6107
▁талдаа 6108
▁талт 6109
▁талтай 6110
▁талууд 6111
▁талуудын 6112
▁талх 6113
▁талхдаад 6114
▁талхдаж 6115
▁талыг 6116
▁талын 6117
▁там 6118
▁тамга 6119
▁тамгын 6120
▁тамд 6121
▁тамир 6122
▁тамирч 6123
▁тамирчин 6124
▁тамирчны 6125
▁тамирыг 6126
▁тамирын 6127
▁тамх 6128
▁тамхи 6129
▁тан 6130
тан 6131
тана 6132
▁танаас 6133
▁танай 6134
▁тангар 6135
▁тангараг 6136
▁тангуд 6137
▁танд 6138
танд 6139
▁танил 6140
▁танилц 6141
▁танилцсан 6142
▁танилцуулах 6143
▁танилцуулж 6144
▁танин 6145
▁таних 6146
▁танихгүй 6147
▁тансаг 6148
▁танхим 6149
▁танхимд 6150
▁танхимын 6151
▁таны 6152
▁таныг 6153
▁тань 6154
▁таньдаг 6155
▁таньж 6156
▁тар 6157
тар 6158
▁тараах 6159
▁тараг 6160
▁тарв 6161
▁тарваг 6162
▁тарвага 6163
▁тарваганы 6164
▁тарган 6165
▁тариа 6166
▁тариал 6167
▁тариалан 6168
▁тариалангийн 6169
▁тарианы 6170
▁тариачид 6171
▁тарих 6172
тарсан 6173
▁тарх 6174
▁тархаа 6175
▁тархаахад 6176
▁тархи 6177
▁тархины 6178
▁тархсан 6179
тарч 6180
▁тарь 6181
▁тарьж 6182
▁тас 6183
▁тасал 6184
▁тасар 6185
▁таслах 6186
▁тасралгүй 6187
▁тасралтгүй 6188
▁тат 6189
▁татаад 6190
▁татаар 6191
▁татаж 6192
▁татан 6193
▁татар 6194
▁татах 6195
▁татвар 6196
▁татварын 6197
▁татгал 6198
▁татгалз 6199
▁татгалзсан 6200
▁татдаг 6201
▁татсан 6202
▁тах 6203
тах 6204
▁тахи 6205
▁тахиа 6206
▁тахидаг 6207
▁тахиж 6208
▁тахил 6209
▁тахилга 6210
▁тахилгын 6211
▁тахих 6212
▁тач 6213
▁таш 6214
▁ташуур 6215
▁тбб 6216
▁тв 6217
тг 6218
тгаж 6219
тгай 6220
тгал 6221
тган 6222
тгана 6223
тгар 6224
тгах 6225
тгий 6226
тгийг 6227
тгэл 6228
тгээд 6229
▁те 6230
те 6231
▁теат 6232
▁театр 6233
▁театрт 6234
▁театрын 6235
▁тев 6236
▁тел 6237
▁телевиз 6238
▁телевизийн 6239
▁тем 6240
▁темпер 6241
▁тенд 6242
тер 6243
▁техн 6244
▁техник 6245
▁техникийн 6246
▁технолог 6247
▁технологи 6248
▁технологийн 6249
▁тив 6250
▁тивд 6251
▁тивийн 6252
▁тий 6253
тий 6254
тийг 6255
▁тийм 6256
▁тиймдээ 6257
▁тиймийн 6258
▁тиймээ 6259
▁тиймээс 6260
▁тийн 6261
тийн 6262
▁тийнхүү 6263
▁тийрэн 6264
▁тийш 6265
▁тийшээ 6266
тик 6267
тикийн 6268
тин 6269
▁тит 6270
тн 6271
тнаас 6272
тний 6273
тнийг 6274
тнууд 6275
тнуудад 6276
тнуудын 6277
тнүүд 6278
тны 6279
тныг 6280
тнээр 6281
тнээс 6282
▁то 6283
то 6284
▁тов 6285
▁товч 6286
▁товчоо 6287
▁тог 6288
тог 6289
▁тогл 6290
▁тоглодог 6291
▁тоглож 6292
▁тоглолт 6293
▁тоглолтын 6294
▁тоглоно 6295
▁тоглоо 6296
▁тоглоом 6297
▁тоглосон 6298
▁тоглох 6299
▁тогоо 6300
▁тогоон 6301
▁тогосын 6302
▁тогт 6303
тогт 6304
▁тогтвор 6305
▁тогтворгүй 6306
▁тогтвортой 6307
▁тогтмол 6308
▁тогтн 6309
▁тогтно 6310
▁тогтож 6311
▁тогтолц 6312
▁тогтолцоо 6313
▁тогтолцоог 6314
▁тогтолцоонд 6315
▁тогтолцооны 6316
▁тогтоо 6317
▁тогтоодог 6318
▁тогтоож 6319
▁тогтоожээ 6320
▁тогтоол 6321
▁тогтоомж 6322
▁тогтоон 6323
▁тогтооно 6324
▁тогтоосон 6325
▁тогтоох 6326
▁тогтсон 6327
▁тод 6328
▁тодор 6329
▁тодорхой 6330
▁тодорхойгүй 6331
▁тодорхойл 6332
▁тодорхойлдог 6333
▁тодорхойлж 6334
▁тодорхойлно 6335
▁тодорхойлогд 6336
▁тодорхойлолт 6337
▁тодорхойлолтыг 6338
▁тодорхойлох 6339
▁тодорхойлсон 6340
▁тодр 6341
▁тодруулах 6342
▁тодруулж 6343
▁тоду 6344
▁той 6345
той 6346
тойгоо 6347
▁тойм 6348
▁тойн 6349
▁тойр 6350
▁тойрон 6351
▁тойронд 6352
▁тол 6353
тол 6354
▁толгой 6355
▁толгойг 6356
▁толгойгоо 6357
▁толгойд 6358
▁толгойн 6359
▁толгойтой 6360
▁толил 6361
▁толь 6362
▁тольд 6363
▁том 6364
▁томил 6365
▁томоо 6366
▁томоохон 6367
▁томор 6368
▁томьё 6369
▁тон 6370
тон 6371
▁тонг 6372
▁тонгой 6373
▁тоног 6374
▁тоо 6375
тоо 6376
▁тоог 6377
▁тоогоор 6378
▁тоол 6379
▁тооллог 6380
▁тоомс 6381
▁тоон 6382
▁тоонд 6383
▁тооны 6384
▁тоор 6385
▁тоорил 6386
▁тоос 6387
▁тоосон 6388
▁тооц 6389
▁тооцно 6390
▁тооцож 6391
▁тооцоо 6392
▁тооцоол 6393
▁тооцох 6394
▁тор 6395
тор 6396
▁торг 6397
▁торго 6398
▁торгон 6399
▁торгуул 6400
▁торгууль 6401
▁тос 6402
▁тосг 6403
▁тосгон 6404
▁тосгонд 6405
▁тосгоны 6406
▁тосон 6407
▁тосоор 6408
▁тосыг 6409
▁тот 6410
▁тох 6411
▁тохи 6412
▁тохиол 6413
▁тохиолд 6414
▁тохиолддог 6415
▁тохиолдл 6416
▁тохиолдож 6417
▁тохиолдол 6418
▁тохиолдолд 6419
▁тохиолдох 6420
▁тохиолдсон 6421
▁тохир 6422
▁тохиролц 6423
▁тохиромжтой 6424
▁тохирох 6425
▁тохирсон 6426
▁тохируулан 6427
▁тохой 6428
▁тохойн 6429
▁төв 6430
▁төвд 6431
▁төвдийн 6432
▁төвийг 6433
▁төвийн 6434
▁төвлөр 6435
▁төвөг 6436
▁төвөгтэй 6437
▁төвөд 6438
▁төвөдийн 6439
▁төвөдөөр 6440
▁төвшин 6441
▁төвшитг 6442
▁төг 6443
▁төгөлдөр 6444
▁төгрөг 6445
▁төгрөгийг 6446
▁төгс 6447
▁төгсгөл 6448
▁төгсгөлд 6449
▁төгсөөд 6450
▁төгсөх 6451
▁төгссөн 6452
▁төд 6453
▁төдий 6454
▁төдийг 6455
▁төдийгүй 6456
▁төдийлөн 6457
▁төдхөн 6458
▁төл 6459
төл 6460
▁төлбөр 6461
▁төлж 6462
▁төлөв 6463
▁төлөвл 6464
▁төлөвлөг 6465
▁төлөвлөгөө 6466
▁төлөвлөгөөг 6467
▁төлөвлөгөөний 6468
▁төлөвлөгөөтэй 6469
▁төлөвлөж 6470
▁төлөвлөлт 6471
▁төлөвлөсөн 6472
▁төлөвлөх 6473
▁төлөвш 6474
▁төлөг 6475
▁төлөө 6476
▁төлөөлөгч 6477
▁төлөөлөгчдийн 6478
▁төлөөлөгчид 6479
▁төлөөлөл 6480
▁төлөөх 6481
▁төлөх 6482
▁төлсөн 6483
▁төм 6484
▁төмөр 6485
төмөр 6486
▁төмс 6487
▁төмүжин 6488
төн 6489
төнц 6490
төө 6491
▁төөн 6492
▁төөнөдөг 6493
▁төөнөх 6494
▁төөр 6495
▁төөрөгд 6496
▁төөрөлд 6497
▁төр 6498
төр 6499
▁төрд 6500
▁төрдөг 6501
▁төрж 6502
▁төрийг 6503
▁төрийн 6504
▁төрлийн 6505
▁төрнө 6506
▁төрөв 6507
▁төрөл 6508
▁төрөлд 6509
▁төрөлх 6510
▁төрөлхийн 6511
▁төрөлхтний 6512
▁төрөлхтөн 6513
▁төрөө 6514
▁төрөөс 6515
▁төрөх 6516
▁төрөхөд 6517
▁төрсөн 6518
▁төртэй 6519
▁төрүүлдэг 6520
▁төрүүлж 6521
▁төрүүлсэн 6522
▁төрүүлэх 6523
▁төрх 6524
▁төрч 6525
▁төс 6526
▁төсвийн 6527
▁төслийг 6528
▁төслийн 6529
▁төсөв 6530
▁төсөл 6531
▁төсөлд 6532
▁төсөөл 6533
▁төсөөлж 6534
▁төсөөлөл 6535
▁төстэй 6536
▁төхөөр 6537
▁төхөөрөмж 6538
▁тр 6539
тр 6540
▁тран 6541
▁транс 6542
▁трансженд 6543
▁трансжендэр 6544
▁трой 6545
трын 6546
▁ту 6547
ту 6548
▁туг 6549
тугай 6550
▁тугал 6551
▁тугийг 6552
▁туй 6553
▁туйл 6554
▁туйлын 6555
▁тул 6556
тул 6557
▁тулаан 6558
▁тулаанд 6559
▁тулалд 6560
▁тулалдаан 6561
▁тулалдаанд 6562
▁тулалдааны 6563
▁тулалдаж 6564
▁тулалдах 6565
▁тулг 6566
▁тулгам 6567
▁тулгар 6568
▁тулгарсан 6569
▁тулгарч 6570
▁тулгуур 6571
▁тулгуурлан 6572
▁тулгуурласан 6573
▁тулд 6574
▁тулж 6575
▁тулуй 6576
▁тун 6577
тун 6578
▁тунгалаг 6579
▁тунхаг 6580
▁тур 6581
▁турак 6582
▁туракина 6583
▁турк 6584
▁турхаг 6585
▁турш 6586
▁туршид 6587
▁туршил 6588
▁туршилт 6589
▁туршлага 6590
▁туршлагатай 6591
▁туршлагыг 6592
▁тус 6593
▁тусал 6594
▁тусалдаг 6595
▁тусалж 6596
▁тусална 6597
▁тусалсан 6598
▁тусам 6599
▁тусах 6600
▁тусг 6601
▁тусгаар 6602
▁тусгагдсан 6603
▁тусгаж 6604
▁тусгай 6605
▁тусгайлан 6606
▁тусгал 6607
▁тусгасан 6608
▁тусгүй 6609
▁тусдаа 6610
▁тусл 6611
▁туслагч 6612
▁туслал 6613
▁туслалцаа 6614
▁тусламж 6615
▁тусламжтайгаар 6616
▁туслах 6617
▁туслахаар 6618
▁тусмаа 6619
▁туссан 6620
▁тустай 6621
▁тусыг 6622
▁тусын 6623
▁тут 6624
▁тутам 6625
▁тутмын 6626
▁туу 6627
▁тууж 6628
▁туул 6629
туул 6630
▁туулай 6631
▁туулж 6632
▁туур 6633
▁туурв 6634
▁тууштай 6635
▁тухай 6636
▁тухайгаа 6637
▁тухайд 6638
▁тухайл 6639
▁тухайлбал 6640
▁тухайн 6641
▁туш 6642
▁тушаал 6643
▁тушаалтан 6644
▁тушаалыг 6645
▁туяа 6646
▁тү 6647
тү 6648
▁түв 6649
▁түвд 6650
▁түвш 6651
▁түвшин 6652
▁түвшинд 6653
▁түвшний 6654
▁түг 6655
▁түгшүүр 6656
түгэй 6657
▁түгээ 6658
▁түгээмэл 6659
▁түй 6660
▁түймэр 6661
▁түл 6662
▁түлх 6663
▁түлхүүр 6664
▁түм 6665
▁түмний 6666
▁түмнийг 6667
▁түмэд 6668
▁түмэн 6669
▁түмэнд 6670
▁түн 6671
түн 6672
▁түнш 6673
▁түр 6674
▁түргэн 6675
▁түрүү 6676
▁түрүүнд 6677
▁түрх 6678
▁түрхвэл 6679
▁түрхдэг 6680
▁түрэг 6681
▁түрэмгий 6682
▁түрээс 6683
▁түү 6684
▁түүгээр 6685
▁түүгээрээ 6686
▁түүж 6687
▁түүн 6688
▁түүнд 6689
▁түүндээ 6690
▁түүний 6691
▁түүнийг 6692
▁түүнийгээ 6693
▁түүнтэй 6694
▁түүнчлэн 6695
▁түүнээс 6696
▁түүх 6697
▁түүхий 6698
▁түүхийг 6699
▁түүхийн 6700
▁түүхтэй 6701
▁түүхчид 6702
▁түүхэн 6703
▁түүхэнд 6704
▁түүхээс 6705
▁түш 6706
▁түшиг 6707
▁түшиглэсэн 6708
▁түшмэд 6709
▁түшмэдийг 6710
▁түшмэдийн 6711
▁түшмэл 6712
▁түшмэлийг 6713
▁түшээ 6714
▁түшээт 6715
▁тх 6716
▁тххт 6717
тыг 6718
тын 6719
ть 6720
▁тэв 6721
▁тэвр 6722
▁тэвч 6723
▁тэвчиж 6724
▁тэвчээр 6725
▁тэвчээртэй 6726
▁тэвэрч 6727
▁тэг 6728
▁тэгвэл 6729
▁тэгж 6730
▁тэгсэн 6731
▁тэгтэл 6732
▁тэгш 6733
▁тэгэж 6734
▁тэгэх 6735
▁тэгэхгүй 6736
▁тэгэхдээ 6737
▁тэгэхлээр 6738
▁тэгэхэд 6739
▁тэгэхээр 6740
▁тэгээд 6741
▁тэд 6742
▁тэдгээр 6743
▁тэдгээрийг 6744
▁тэдгээрийн 6745
▁тэдний 6746
▁тэднийг 6747
▁тэднээс 6748
▁тэдэн 6749
▁тэдэнд 6750
▁тэдэнтэй 6751
▁тэж 6752
▁тэжээ 6753
▁тэжээл 6754
▁тэжээлийн 6755
▁тэй 6756
тэй 6757
тэйгөө 6758
тэйгээ 6759
тэйгээр 6760
▁тэл 6761
тэл 6762
▁тэм 6763
▁тэмд 6764
▁тэмдэг 6765
▁тэмдэглэдэг 6766
▁тэмдэглэж 6767
▁тэмдэглэжээ 6768
▁тэмдэглэл 6769
▁тэмдэглэнэ 6770
▁тэмдэглэсэн 6771
▁тэмдэглэх 6772
▁тэмдэглээ 6773
▁тэмтр 6774
▁тэмүжин 6775
▁тэмүү 6776
▁тэмүүжин 6777
▁тэмц 6778
▁тэмцлийн 6779
▁тэмцэж 6780
▁тэмцэл 6781
▁тэмцэлд 6782
▁тэмцэх 6783
▁тэмцээн 6784
▁тэмцээнд 6785
▁тэмцээний 6786
▁тэмээ 6787
▁тэн 6788
тэн 6789
▁тэнг 6790
тэнг 6791
▁тэнгис 6792
▁тэнгисийн 6793
▁тэнгэр 6794
▁тэнгэрийг 6795
▁тэнгэрийн 6796
▁тэнгэрт 6797
▁тэнгэрээс 6798
▁тэнд 6799
тэнд 6800
▁тэндээс 6801
▁тэнх 6802
▁тэнхээ 6803
▁тэнц 6804
▁тэнцвэр 6805
▁тэнцүү 6806
▁тэнэг 6807
▁тэр 6808
тэр 6809
▁тэрб 6810
▁тэрбум 6811
▁тэрбээр 6812
▁тэрг 6813
▁тэргүү 6814
▁тэргүүлэгч 6815
▁тэргүүлэн 6816
▁тэргүүлэх 6817
▁тэргүүн 6818
▁тэргүүнд 6819
▁тэргүүний 6820
▁тэргүүтэн 6821
▁тэрс 6822
▁тэртээ 6823
▁тэрхүү 6824
▁тэрчлэн 6825
▁тэрэг 6826
▁тэрэгний 6827
▁тэрээр 6828
▁тэс 6829
тэс 6830
▁тэсвэр 6831
▁тэтг 6832
▁тэтгэв 6833
▁тэтгэврийн 6834
▁тэтгэвэр 6835
▁тэтгэсэн 6836
▁тэтгэсэний 6837
▁тээ 6838
тээ 6839
▁тээв 6840
▁тээврийн 6841
▁тээвэр 6842
▁тээж 6843
▁тээн 6844
▁тянь 6845
▁у 6846
у 6847
уал 6848
▁уб 6849
уб 6850
▁ув 6851
▁увд 6852
▁увдис 6853
▁увс 6854
▁уг 6855
уг 6856
▁угаа 6857
▁угаавал 6858
▁угааж 6859
▁угаал 6860
▁угаана 6861
угаар 6862
▁угаас 6863
▁угаасаа 6864
▁угаах 6865
угай 6866
▁угал 6867
▁угийн 6868
▁угс 6869
▁угсаа 6870
▁угсааны 6871
▁угт 6872
▁угтаа 6873
▁угтаж 6874
▁угтан 6875
▁уд 6876
уд 6877
▁удаа 6878
▁удаагаа 6879
▁удаагийн 6880
▁удаагүй 6881
▁удаад 6882
▁удаан 6883
удай 6884
▁удалгүй 6885
▁удам 6886
▁удахгүй 6887
▁удир 6888
▁удирд 6889
▁удирдагч 6890
▁удирдагчид 6891
▁удирдаж 6892
▁удирдамж 6893
▁удирдан 6894
▁удирдах 6895
▁удирдлаг 6896
▁удирдлага 6897
▁удирдлагын 6898
▁удирдсан 6899
▁удмын 6900
удын 6901
▁уз 6902
уз 6903
▁узун 6904
▁уих 6905
▁уй 6906
уй 6907
▁уйг 6908
уйг 6909
уйд 6910
▁уйл 6911
▁уйлж 6912
уйн 6913
уйц 6914
ук 6915
▁ул 6916
ул 6917
ула 6918
▁улаан 6919
▁улаанбаатар 6920
▁улай 6921
▁улайж 6922
▁улам 6923
▁уламж 6924
▁уламжлал 6925
▁уламжлалт 6926
▁улбар 6927
▁улиас 6928
▁улиастай 6929
▁улиастайн 6930
▁улир 6931
▁улиралд 6932
▁улиран 6933
▁улирлын 6934
▁улмаар 6935
▁улмаас 6936
▁улс 6937
▁улсаа 6938
▁улсаас 6939
▁улсад 6940
▁улсууд 6941
▁улсуудын 6942
▁улсыг 6943
▁улсын 6944
улын 6945
уль 6946
уля 6947
▁ум 6948
ум 6949
▁умар 6950
▁умард 6951
▁умарт 6952
▁умзад 6953
▁ун 6954
ун 6955
▁уна 6956
▁унав 6957
▁унаг 6958
▁унадаг 6959
▁унаж 6960
▁унасан 6961
▁унах 6962
▁унд 6963
унд 6964
▁ундаа 6965
▁ундрам 6966
уни 6967
▁унт 6968
▁унтаж 6969
▁унтах 6970
▁унтр 6971
▁унш 6972
▁уншаад 6973
▁уншдаг 6974
▁уншиг 6975
▁уншигч 6976
▁уншиж 6977
▁уншина 6978
▁унших 6979
▁уншлага 6980
▁уншсан 6981
уны 6982
унь 6983
▁ур 6984
ур 6985
▁ураг 6986
▁урагш 6987
▁урагшаа 6988
▁уралд 6989
▁уралдаан 6990
▁уралдаанд 6991
▁урам 6992
▁урамдлын 6993
▁урамш 6994
▁урамшуул 6995
▁уран 6996
▁урв 6997
▁ургадаг 6998
▁ургаж 6999
▁ургалт 7000
▁ургам 7001
▁ургамал 7002
▁ургамлыг 7003
▁ургамлын 7004
▁урган 7005
▁ургана 7006
▁ургасан 7007
▁ургах 7008
▁ургац 7009
▁ургийн 7010
▁ургуул 7011
▁урд 7012
▁уриал 7013
▁уриан 7014
▁урлаг 7015
▁урлагийг 7016
▁урлагийн 7017
▁урлагт 7018
▁урс 7019
▁урсгал 7020
▁урт 7021
▁уруг 7022
▁уруу 7023
урын 7024
▁урь 7025
▁урьд 7026
▁урьдаар 7027
▁урьдчил 7028
▁урьдчилан 7029
▁урьдын 7030
▁урьж 7031
▁ус 7032
ус 7033
▁усаар 7034
▁усалгаа 7035
▁усан 7036
▁усанд 7037
▁усны 7038
▁уст 7039
▁устай 7040
▁устгах 7041
▁усыг 7042
усын 7043
▁ут 7044
ут 7045
▁утас 7046
▁утг 7047
▁утга 7048
▁утгаар 7049
▁утгаараа 7050
▁утгатай 7051
▁утгыг 7052
▁утгын 7053
▁утсаа 7054
▁утсаар 7055
▁уу 7056
уу 7057
▁уувал 7058
ууг 7059
▁уугаад 7060
▁ууган 7061
уугийн 7062
▁уугуул 7063
▁ууд 7064
ууд 7065
уудаа 7066
уудаар 7067
уудаас 7068
▁уудаг 7069
уудад 7070
▁уудам 7071
уудтай 7072
уудыг 7073
уудын 7074
▁ууж 7075
▁уужим 7076
ууз 7077
уузай 7078
▁уул 7079
уул 7080
уулаа 7081
уулаад 7082
уулав 7083
уулагч 7084
уулалт 7085
уулан 7086
▁ууланд 7087
уулах 7088
уулахаар 7089
уулахад 7090
уулахыг 7091
уулахын 7092
уулбал 7093
уулга 7094
▁уулгавал 7095
▁уулгадаг 7096
▁уулгана 7097
уулдаг 7098
уулж 7099
уулжээ 7100
▁уулз 7101
▁уулзаж 7102
▁уулзалт 7103
▁уулзах 7104
▁уулзвар 7105
▁уулзсан 7106
ууллаа 7107
уулмуй 7108
уулна 7109
уулсан 7110
▁уулын 7111
уулын 7112
уун 7113
уунд 7114
ууны 7115
ууныг 7116
▁уур 7117
уур 7118
уураар 7119
▁уураг 7120
уурах 7121
▁уурлаж 7122
▁ууртай 7123
ууруулах 7124
▁уурхай 7125
▁уурхайн 7126
уурч 7127
▁уурын 7128
уурын 7129
▁уус 7130
▁уут 7131
▁уух 7132
уухан 7133
▁уучл 7134
▁уучлаарай 7135
▁уучлал 7136
▁уушг 7137
▁уушги 7138
▁уушгины 7139
▁уушиг 7140
▁ух 7141
ух 7142
▁ухаа 7143
▁ухаалаг 7144
▁ухаан 7145
▁ухаанаар 7146
▁ухаанд 7147
▁ухаант 7148
▁ухаантай 7149
▁ухаантан 7150
▁ухааны 7151
▁ухааныг 7152
▁ухаар 7153
▁ухаарал 7154
▁ухаарч 7155
▁ухагдах 7156
▁ухагдахуун 7157
▁ухаж 7158
▁ухам 7159
▁ухамсар 7160
▁ухас 7161
ухуй 7162
▁учир 7163
▁учиргүй 7164
▁учирсан 7165
▁учиртай 7166
▁учирч 7167
▁учр 7168
▁учраа 7169
▁учраас 7170
▁учрыг 7171
▁уя 7172
▁уял 7173
▁уялд 7174
▁уялдаа 7175
▁уян 7176
▁ү 7177
ү 7178
▁үг 7179
үг 7180
▁үгийг 7181
▁үгийн 7182
үгийн 7183
▁үгс 7184
▁үгсийг 7185
▁үгтэй 7186
▁үгүй 7187
▁үгүйс 7188
▁үгүйсг 7189
үгэ 7190
үгэй 7191
▁үгэн 7192
▁үгэнд 7193
▁үгээ 7194
▁үгээр 7195
үгээр 7196
▁үд 7197
үд 7198
үдэй 7199
▁үдэш 7200
▁үе 7201
▁үед 7202
▁үедээ 7203
▁үеийг 7204
▁үеийн 7205
▁үеийнхэн 7206
▁үер 7207
▁үерх 7208
▁үеэ 7209
▁үеэл 7210
▁үеэр 7211
▁үеэс 7212
▁үжин 7213
үжин 7214
▁үз 7215
▁үзвэл 7216
▁үзвээс 7217
▁үздэг 7218
▁үзжээ 7219
▁үзлийн 7220
▁үзлэг 7221
▁үзлээ 7222
▁үзнэ 7223
▁үзсэн 7224
▁үзүүл 7225
▁үзүүлдэг 7226
▁үзүүлж 7227
▁үзүүлнэ 7228
▁үзүүлсэн 7229
▁үзүүлэв 7230
▁үзүүлэлт 7231
▁үзүүлэн 7232
▁үзүүлэх 7233
▁үзүүр 7234
▁үзүүрт 7235
▁үзье 7236
▁үзэв 7237
▁үзэг 7238
▁үзэгд 7239
▁үзэгдэл 7240
▁үзэгдэнэ 7241
▁үзэгч 7242
▁үзэгчид 7243
▁үзэж 7244
▁үзэл 7245
▁үзэм 7246
▁үзэн 7247
▁үзэсгэл 7248
▁үзэсгэлэн 7249
▁үзэсгэлэнт 7250
▁үзэх 7251
▁үзэхгүй 7252
▁үзэхэд 7253
▁үзэхээр 7254
▁үзээгүй 7255
▁үзээд 7256
▁үзээрэй 7257
▁үй 7258
үй 7259
үйд 7260
▁үйзэн 7261
▁үйл 7262
үйл 7263
▁үйлд 7264
▁үйлдвэр 7265
▁үйлдвэрийн 7266
▁үйлдвэрлэл 7267
▁үйлдвэрлэлийн 7268
▁үйлдлийг 7269
▁үйлдлийн 7270
▁үйлдлүүд 7271
▁үйлдсэн 7272
▁үйлдэг 7273
▁үйлдэж 7274
▁үйлдэл 7275
▁үйлдэлтэй 7276
▁үйлдэх 7277
▁үйлийг 7278
▁үйлийн 7279
▁үйлс 7280
▁үйлчил 7281
▁үйлчилгээ 7282
▁үйлчилгээг 7283
▁үйлчилгээнд 7284
▁үйлчилгээний 7285
▁үйлчилдэг 7286
▁үйлчилж 7287
▁үйлчл 7288
▁үйлчлүүлэгч 7289
▁үйлчлэх 7290
▁үйм 7291
▁үймээн 7292
үйн 7293
▁үл 7294
үл 7295
▁үлг 7296
▁үлгэр 7297
▁үлд 7298
▁үлджээ 7299
▁үлдсэн 7300
▁үлдэг 7301
▁үлдэж 7302
▁үлдэнэ 7303
▁үлдэх 7304
▁үлдээ 7305
▁үлдээсэн 7306
▁үлдээх 7307
▁үлэмж 7308
үлэн 7309
▁үлээ 7310
үм 7311
▁үн 7312
үн 7313
▁үнд 7314
▁үндсийг 7315
▁үндсэн 7316
▁үндсэндээ 7317
▁үндэс 7318
▁үндэслэл 7319
▁үндэслэн 7320
▁үндэслэсэн 7321
▁үндэсний 7322
▁үндэстний 7323
▁үндэстэй 7324
▁үндэстэн 7325
үний 7326
▁үнс 7327
▁үнсийг 7328
▁үнэ 7329
▁үнэг 7330
▁үнэгний 7331
▁үнэл 7332
▁үнэлгээ 7333
▁үнэлгээг 7334
▁үнэлгээний 7335
▁үнэлгээтэй 7336
▁үнэлдэг 7337
▁үнэлж 7338
▁үнэлнэ 7339
▁үнэлэмж 7340
▁үнэлэмжийн 7341
▁үнэлэх 7342
▁үнэм 7343
▁үнэмлэх 7344
▁үнэн 7345
▁үнэндээ 7346
▁үнэний 7347
▁үнэнийг 7348
▁үнэнч 7349
▁үнэр 7350
▁үнэрт 7351
▁үнэт 7352
▁үнэтэй 7353
▁үнэхээр 7354
▁үнээ 7355
▁үнээний 7356
▁үр 7357
үр 7358
▁үргэл 7359
▁үргэлж 7360
▁үргэлжил 7361
▁үргэлжилж 7362
▁үргэлжилнэ 7363
▁үргэлжилсэн 7364
▁үргэлжл 7365
▁үргэлжлүүлэн 7366
▁үргэлжлэх 7367
▁үрж 7368
▁үржүүлэх 7369
▁үрийг 7370
▁үрийн 7371
үрийн 7372
▁үрс 7373
▁үрэвс 7374
▁үрэвсэл 7375
үрэн 7376
▁үрээ 7377
▁үс 7378
▁үсгээр 7379
▁үсийг 7380
▁үср 7381
▁үстэй 7382
▁үсэг 7383
үт 7384
үтэй 7385
▁үтэр 7386
▁үү 7387
үү 7388
үүг 7389
▁үүгээр 7390
▁үүд 7391
үүд 7392
үүдийг 7393
үүдийн 7394
▁үүдний 7395
▁үүднээс 7396
үүдтэй 7397
үүдэд 7398
▁үүдэлтэй 7399
▁үүдэн 7400
▁үүдэнд 7401
үүдээ 7402
үүдээр 7403
үүдээс 7404
▁үүл 7405
үүл 7406
үүлбэл 7407
үүлдэг 7408
үүлж 7409
үүлжээ 7410
үүллээ 7411
үүлмүй 7412
үүлнэ 7413
үүлс 7414
үүлсэн 7415
үүлэв 7416
үүлэг 7417
үүлэгч 7418
үүлэгчид 7419
үүлэлт 7420
үүлэн 7421
үүлэх 7422
үүлэхийг 7423
үүлэхэд 7424
үүлээгүй 7425
үүлээд 7426
▁үүн 7427
үүн 7428
▁үүнд 7429
үүнд 7430
▁үүний 7431
үүний 7432
▁үүнийг 7433
▁үүнийгээ 7434
▁үүнтэй 7435
▁үүнээс 7436
▁үүр 7437
үүр 7438
▁үүргийг 7439
▁үүргийн 7440
▁үүргээ 7441
▁үүрд 7442
▁үүрч 7443
▁үүрэг 7444
▁үүрэгтэй 7445
▁үүс 7446
үүс 7447
▁үүсвэр 7448
▁үүсг 7449
▁үүсгэгч 7450
▁үүсгэдэг 7451
▁үүсгэж 7452
▁үүсгэн 7453
▁үүсгэх 7454
▁үүсдэг 7455
▁үүснэ 7456
▁үүссэн 7457
▁үүсч 7458
▁үүсчээ 7459
▁үүсэж 7460
▁үүсэл 7461
▁үүсэх 7462
үүт 7463
үүх 7464
үүхэн 7465
үүц 7466
▁үх 7467
үх 7468
▁үхлийн 7469
▁үхлээ 7470
▁үхрийн 7471
▁үхсэн 7472
үхүй 7473
▁үхэв 7474
▁үхэж 7475
▁үхэл 7476
▁үхэр 7477
▁үхэх 7478
▁ф 7479
ф 7480
▁фа 7481
▁фара 7482
▁фаш 7483
▁феод 7484
▁ферм 7485
▁физ 7486
▁фил 7487
▁филипп 7488
▁философ 7489
▁философи 7490
▁философийн 7491
▁фин 7492
фор 7493
▁фото 7494
▁фр 7495
▁франк 7496
▁франц 7497
▁францад 7498
▁францын 7499
▁фу 7500
фу 7501
▁фэн 7502
▁х 7503
х 7504
▁ха 7505
ха 7506
▁хаа 7507
хаа 7508
▁хааг 7509
▁хаагд 7510
▁хаагч 7511
▁хаад 7512
▁хаадын 7513
▁хааж 7514
▁хаал 7515
▁хаалг 7516
▁хаалга 7517
▁хаалгаар 7518
▁хаалганы 7519
▁хаалгыг 7520
▁хаалт 7521
▁хаан 7522
▁хаана 7523
▁хаанаа 7524
▁хаанаас 7525
▁хаанд 7526
▁хаант 7527
▁хааны 7528
▁хааныг 7529
хаар 7530
хаас 7531
▁хаах 7532
▁хааш 7533
▁хаашаа 7534
▁хааяа 7535
▁хаб 7536
▁хав 7537
▁хавар 7538
▁хавд 7539
▁хавдар 7540
▁хавир 7541
▁хавирга 7542
▁хаврын 7543
▁хавсар 7544
▁хавср 7545
▁хавсралт 7546
▁хавсруулж 7547
▁хавт 7548
▁хавтгай 7549
▁хавч 7550
▁хавь 7551
▁хаг 7552
хаг 7553
▁хагал 7554
▁хагар 7555
▁хагас 7556
▁хагац 7557
▁хад 7558
хад 7559
▁хадаг 7560
▁хадам 7561
▁хадгал 7562
▁хадгалах 7563
▁хадгалж 7564
▁хадгална 7565
▁хадуулжээ 7566
▁хаж 7567
▁хажуу 7568
▁хажуугаар 7569
▁хажууд 7570
▁хаз 7571
▁хазай 7572
▁хай 7573
хай 7574
▁хайж 7575
хайн 7576
▁хайр 7577
▁хайрла 7578
▁хайрладаг 7579
▁хайрлаж 7580
▁хайрласан 7581
▁хайрлах 7582
▁хайртай 7583
▁хайрын 7584
▁хайх 7585
▁хал 7586
хал 7587
▁халамж 7588
▁халб 7589
▁халд 7590
▁халдвар 7591
▁халдварт 7592
▁халжээ 7593
▁халиун 7594
▁халиунаа 7595
▁халт 7596
▁халуу 7597
▁халуун 7598
▁халууны 7599
▁халууныг 7600
▁халх 7601
▁халхын 7602
▁халь 7603
▁хальс 7604
▁хам 7605
▁хамаа 7606
▁хамаагүй 7607
▁хамаар 7608
▁хамааралтай 7609
▁хамааран 7610
▁хамаарах 7611
▁хамаардаг 7612
▁хамаарна 7613
▁хамаарч 7614
▁хамаатай 7615
▁хамаг 7616
▁хамар 7617
▁хамарсан 7618
▁хамба 7619
▁хамгаа 7620
▁хамгаал 7621
▁хамгаалагч 7622
▁хамгаалагчдыг 7623
▁хамгаалалт 7624
▁хамгаалалтын 7625
▁хамгаалах 7626
▁хамгаалахад 7627
▁хамгаалахын 7628
▁хамгаалдаг 7629
▁хамгаалж 7630
▁хамгаалсан 7631
▁хамгаас 7632
▁хамгийг 7633
▁хамгийн 7634
▁хамж 7635
▁хамр 7636
▁хамруулах 7637
▁хамт 7638
▁хамтаар 7639
▁хамтарч 7640
▁хамтдаа 7641
▁хамтлаг 7642
▁хамтр 7643
▁хамтран 7644
▁хамтын 7645
▁хан 7646
хан 7647
▁хана 7648
хана 7649
▁ханаж 7650
▁ханах 7651
▁ханг 7652
▁хангаж 7653
▁хангай 7654
хангай 7655
▁хангал 7656
▁хангалт 7657
▁хангалтгүй 7658
▁хангалттай 7659
▁хангалуун 7660
▁хангамж 7661
▁хангасан 7662
▁хангах 7663
▁ханд 7664
ханд 7665
▁хандаж 7666
▁хандан 7667
▁хандах 7668
▁ханддаг 7669
▁хандив 7670
▁хандлага 7671
▁хандлагатай 7672
▁хандлагыг 7673
▁хандсан 7674
▁хандуулж 7675
▁ханхүү 7676
▁ханы 7677
ханы 7678
▁ханыг 7679
▁ханын 7680
▁хань 7681
▁хао 7682
▁хар 7683
хар 7684
▁хараа 7685
▁хараагүй 7686
▁хараад 7687
▁хараал 7688
▁хараат 7689
▁хараахан 7690
▁харав 7691
▁харавтар 7692
▁харагд 7693
▁харагдаж 7694
▁харагдана 7695
▁харагдах 7696
▁харагддаг 7697
▁харамс 7698
▁харамсалтай 7699
▁харан 7700
▁харанхуй 7701
▁харах 7702
▁харахаар 7703
▁харахад 7704
▁харахгүй 7705
▁харахыг 7706
▁харв 7707
▁харвал 7708
▁харгал 7709
▁харгалз 7710
▁харгалзан 7711
▁харгис 7712
▁хардаг 7713
▁харж 7714
▁харив 7715
▁харилц 7716
▁харилцаа 7717
▁харилцааг 7718
▁харилцаанд 7719
▁харилцааны 7720
▁харилцаж 7721
▁харилцан 7722
▁харилцах 7723
▁харин 7724
▁хариу 7725
▁хариуд 7726
▁хариул 7727
▁хариулав 7728
▁хариулан 7729
▁хариулах 7730
▁хариулж 7731
▁хариулт 7732
▁хариуц 7733
▁хариуцах 7734
▁хариуцлага 7735
▁хариуцлагатай 7736
▁хариуцлагыг 7737
▁хариуцлагын 7738
▁хариуцсан 7739
▁харлаа 7740
▁харна 7741
▁харсан 7742
▁хартал 7743
▁харуул 7744
▁харуулах 7745
▁харуулж 7746
▁харуулсан 7747
▁харуулыг 7748
▁харц 7749
▁харш 7750
▁харшил 7751
▁харь 7752
▁харьж 7753
▁харьц 7754
▁харьцаа 7755
▁харьцаж 7756
▁харьцангуй 7757
▁харьцах 7758
▁харьцдаг 7759
▁харьцуулан 7760
▁харьцуулахад 7761
▁харьцуулж 7762
▁харья 7763
▁харьяал 7764
▁харьяат 7765
▁хас 7766
хас 7767
▁хасар 7768
▁хасах 7769
▁хат 7770
▁хатааж 7771
▁хатаана 7772
▁хатаасан 7773
▁хатаах 7774
▁хатаг 7775
▁хатан 7776
▁хатг 7777
▁хатгавал 7778
▁хатгадаг 7779
▁хатгаж 7780
▁хатгал 7781
▁хатгалд 7782
▁хатгалдаж 7783
▁хатгах 7784
▁хатнаас 7785
▁хатны 7786
▁хатуу 7787
▁хатууж 7788
хау 7789
▁хах 7790
▁хац 7791
▁хацар 7792
▁хачин 7793
▁хаш 7794
▁хашаа 7795
▁хашгир 7796
▁хашгирав 7797
▁хашхир 7798
▁хая 7799
▁хаяг 7800
▁хаяж 7801
▁хаясан 7802
▁хаях 7803
▁хб 7804
хгүй 7805
хи 7806
▁хиа 7807
▁хив 7808
▁хижиг 7809
▁хий 7810
хий 7811
▁хийв 7812
▁хийвэл 7813
▁хийг 7814
хийг 7815
▁хийгдсэн 7816
▁хийгдэж 7817
▁хийгээд 7818
▁хийд 7819
▁хийдийн 7820
▁хийдэг 7821
▁хийдэд 7822
▁хийж 7823
хийж 7824
▁хийжээ 7825
▁хийл 7826
▁хийлг 7827
▁хийлгэх 7828
▁хийлээ 7829
▁хиймор 7830
▁хийморь 7831
▁хийн 7832
хийн 7833
▁хийнэ 7834
▁хийраа 7835
▁хийс 7836
▁хийсвэр 7837
▁хийсэн 7838
▁хийх 7839
▁хийхгүй 7840
▁хийхдээ 7841
▁хийхийг 7842
▁хийхэд 7843
▁хийхээ 7844
▁хийхээр 7845
▁хийхээс 7846
▁хийц 7847
▁хил 7848
▁хилийн 7849
▁хилэн 7850
▁хилэнг 7851
▁хилэнц 7852
хим 7853
▁химийн 7854
хин 7855
▁хир 7856
хир 7857
▁хиртэй 7858
▁хич 7859
▁хичнээн 7860
▁хичээ 7861
▁хичээдэг 7862
▁хичээж 7863
▁хичээл 7864
▁хичээлдээ 7865
▁хичээлийг 7866
▁хичээлийн 7867
▁хичээлээ 7868
▁хичээн 7869
▁хичээнгүй 7870
▁хичээнэ 7871
▁хичээсэн 7872
▁хичээх 7873
▁хиш 7874
▁хишиг 7875
хлан 7876
хн 7877
хнаа 7878
хнаар 7879
хнаас 7880
хний 7881
хнийг 7882
хны 7883
хныг 7884
▁хо 7885
▁хов 7886
▁ховор 7887
▁хог 7888
▁ход 7889
▁ходоод 7890
▁ходоодны 7891
▁хоё 7892
▁хоёр 7893
▁хоёрдугаар 7894
▁хоёрдугаарт 7895
▁хоёроос 7896
▁хоёрт 7897
▁хоёрхон 7898
▁хоёрыг 7899
▁хоёрын 7900
▁хоёул 7901
▁хоёулаа 7902
▁хож 7903
▁хожим 7904
▁хожмын 7905
▁хожуу 7906
▁хой 7907
хой 7908
▁хойд 7909
▁хойно 7910
▁хойноос 7911
▁хойт 7912
▁хойч 7913
▁хойш 7914
▁хол 7915
▁холб 7916
▁холбог 7917
▁холбогд 7918
▁холбогдлыг 7919
▁холбогдол 7920
▁холбогдолтой 7921
▁холбогдох 7922
▁холбогдсон 7923
▁холбогдуулан 7924
▁холбож 7925
▁холбоо 7926
▁холбоог 7927
▁холбооны 7928
▁холбоотой 7929
▁холбоотойгоор 7930
▁холгүй 7931
▁холд 7932
▁холилд 7933
▁холим 7934
▁холын 7935
▁хольж 7936
▁хом 7937
▁хон 7938
хон 7939
▁хонг 7940
▁хонгир 7941
▁хонгор 7942
хонд 7943
хондоо 7944
▁хонз 7945
▁хонин 7946
▁хонины 7947
▁хоног 7948
▁хоногийн 7949
▁хоногт 7950
▁хонх 7951
▁хонь 7952
хоо 7953
▁хоол 7954
▁хоолл 7955
▁хооллоно 7956
▁хооллох 7957
▁хоолны 7958
▁хоолой 7959
▁хоолойг 7960
▁хоолойгоо 7961
▁хоолойн 7962
▁хоолонд 7963
▁хоолоо 7964
▁хоолыг 7965
▁хоор 7966
▁хоорий 7967
▁хоорийгийн 7968
▁хооронд 7969
▁хоорондоо 7970
▁хоорондох 7971
▁хоорондын 7972
▁хоос 7973
▁хоосон 7974
▁хор 7975
хор 7976
▁хорв 7977
▁хорвоо 7978
▁хорг 7979
▁хоргод 7980
▁хори 7981
▁хориг 7982
▁хоригдл 7983
▁хоригл 7984
▁хориглоно 7985
▁хориглосон 7986
▁хорин 7987
▁хориотой 7988
▁хорих 7989
▁хормой 7990
▁хорол 7991
▁хоролмаа 7992
▁хором 7993
▁хороо 7994
▁хороол 7995
▁хороонд 7996
▁хорооны 7997
▁хорс 7998
▁хорт 7999
▁хортой 8000
▁хорх 8001
▁хорхой 8002
▁хорхойг 8003
▁хорхойн 8004
▁хорчин 8005
▁хорш 8006
▁хорыг 8007
▁хорь 8008
▁хос 8009
▁хот 8010
▁хотноо 8011
▁хотод 8012
▁хотоос 8013
▁хотууд 8014
▁хотуудын 8015
▁хотыг 8016
▁хотын 8017
▁хохир 8018
▁хохирогч 8019
▁хохирол 8020
▁хоц 8021
▁хоцор 8022
▁хоцорсон 8023
▁хоцр 8024
▁хош 8025
▁хошин 8026
▁хошног 8027
▁хошногоны 8028
▁хошой 8029
▁хошуу 8030
▁хошуунд 8031
▁хошууны 8032
▁хө 8033
▁хөв 8034
▁хөвгүүд 8035
▁хөвгүүдийн 8036
▁хөвгүүн 8037
▁хөвгүүнийг 8038
▁хөвгүүнээ 8039
▁хөвөө 8040
▁хөвүүд 8041
▁хөвүүн 8042
▁хөг 8043
▁хөгж 8044
▁хөгжиж 8045
▁хөгжил 8046
▁хөгжилд 8047
▁хөгжилтэй 8048
▁хөгжим 8049
▁хөгжимд 8050
▁хөгжимдөх 8051
▁хөгжимчид 8052
▁хөгжимчин 8053
▁хөгжин 8054
▁хөгжих 8055
▁хөгжлийг 8056
▁хөгжлийн 8057
▁хөгжм 8058
▁хөгжмийн 8059
▁хөгжсөн 8060
▁хөгжүүлж 8061
▁хөгжүүлэх 8062
▁хөгшин 8063
▁хөгшр 8064
▁хөд 8065
▁хөдл 8066
▁хөдлөв 8067
▁хөдлөл 8068
▁хөдлөх 8069
▁хөдөл 8070
▁хөдөлгө 8071
▁хөдөлгөж 8072
▁хөдөлгөөн 8073
▁хөдөлгөөнд 8074
▁хөдөлгөөний 8075
▁хөдөлгөөнийг 8076
▁хөдөлгөөнтэй 8077
▁хөдөлж 8078
▁хөдөлмөр 8079
▁хөдөлмөрийн 8080
▁хөдөлсөн 8081
▁хөдөө 8082
▁хөдөөгийн 8083
▁хөл 8084
▁хөлд 8085
▁хөлийг 8086
▁хөлийн 8087
▁хөлөг 8088
▁хөлөө 8089
▁хөлс 8090
▁хөлсний 8091
▁хөм 8092
▁хөмсөг 8093
▁хөн 8094
хөн 8095
▁хөнгөн 8096
▁хөнд 8097
▁хөндий 8098
▁хөндл 8099
▁хөндлөн 8100
▁хөндлөнгөөс 8101
▁хөнөөл 8102
▁хөө 8103
хөө 8104
▁хөөж 8105
▁хөөн 8106
▁хөөр 8107
хөөр 8108
▁хөөрхий 8109
▁хөөрхөн 8110
▁хөөцөлд 8111
▁хөр 8112
▁хөрв 8113
▁хөргийг 8114
▁хөрөг 8115
▁хөрөн 8116
▁хөрөнгийг 8117
▁хөрөнгийн 8118
▁хөрөнгө 8119
▁хөрс 8120
▁хөрсийг 8121
▁хөрсний 8122
▁хөрсөн 8123
▁хөрсөнд 8124
▁хөрш 8125
▁хөс 8126
▁хөт 8127
▁хөтөл 8128
▁хөтөлбөр 8129
▁хөтөлбөрийг 8130
▁хөтөлбөрийн 8131
▁хөтөлбөрт 8132
▁хөтөлж 8133
▁хөх 8134
▁хөхний 8135
▁хөхөө 8136
▁хөхтөн 8137
▁хөхүүл 8138
▁хөхүүлж 8139
▁хөхүүлэх 8140
▁хөш 8141
▁хөшөө 8142
▁хр 8143
хр 8144
▁христ 8145
▁христийн 8146
▁христос 8147
хт 8148
хтай 8149
хтэй 8150
▁ху 8151
ху 8152
▁хуан 8153
▁хуантай 8154
▁хуантайз 8155
▁хуантайзи 8156
▁хуанхэ 8157
▁хуанхэү 8158
▁хубилай 8159
▁хубилайг 8160
▁хубилайн 8161
▁хув 8162
▁хуваа 8163
▁хуваагд 8164
▁хуваадаг 8165
▁хувааж 8166
▁хуваалц 8167
▁хуваан 8168
▁хуваар 8169
▁хуваарил 8170
▁хуваарилах 8171
▁хуваарь 8172
▁хувиар 8173
▁хувиараа 8174
▁хувийг 8175
▁хувийн 8176
▁хувил 8177
▁хувилбар 8178
▁хувилгаан 8179
▁хувир 8180
▁хувирчээ 8181
▁хувраг 8182
▁хувц 8183
▁хувцас 8184
▁хувцастай 8185
▁хувцсаа 8186
▁хувь 8187
▁хувьд 8188
▁хувьс 8189
▁хувьсал 8190
▁хувьсгал 8191
▁хувьсгалын 8192
▁хугар 8193
▁хугарах 8194
▁хугарсан 8195
▁хугац 8196
▁хугацаа 8197
▁хугацааг 8198
▁хугацаагаар 8199
▁хугацаанд 8200
▁хугацаандаа 8201
▁хугацааны 8202
▁хугацаатай 8203
▁худ 8204
▁худаг 8205
▁худал 8206
▁худалд 8207
▁худалдаа 8208
▁худалдааны 8209
▁худалдаачид 8210
▁худалдаачин 8211
▁худалдаж 8212
▁худалдан 8213
▁худалдах 8214
▁худалч 8215
▁худлаа 8216
▁хуй 8217
хуй 8218
▁хуйв 8219
▁хул 8220
▁хулан 8221
▁хулг 8222
▁хулгай 8223
▁хулгайч 8224
▁хулгана 8225
▁хулч 8226
▁хум 8227
▁хун 8228
хун 8229
▁хундаг 8230
▁хунтайж 8231
▁хунтайжийн 8232
▁хур 8233
хур 8234
▁хураа 8235
▁хурааж 8236
▁хураан 8237
▁хураангуй 8238
▁хураасан 8239
▁хураах 8240
▁хурай 8241
▁хурал 8242
▁хуралд 8243
▁хуралдаан 8244
▁хуран 8245
▁хурд 8246
▁хурдаг 8247
▁хурдан 8248
▁хурим 8249
▁хуримт 8250
▁хурлын 8251
▁хуруу 8252
▁хурууны 8253
▁хурц 8254
▁хус 8255
▁хут 8256
▁хутаг 8257
▁хутагт 8258
▁хутагтын 8259
▁хутг 8260
▁хутга 8261
▁хутуг 8262
▁хуу 8263
▁хууд 8264
▁хуудас 8265
▁хуул 8266
▁хуулбар 8267
▁хуулиар 8268
▁хуулийг 8269
▁хуулийн 8270
▁хуулинд 8271
▁хуулиуд 8272
▁хууль 8273
▁хуульд 8274
▁хуур 8275
▁хуурай 8276
▁хуурамч 8277
▁хуурч 8278
▁хуурын 8279
▁хууч 8280
▁хуучин 8281
▁хуучир 8282
▁хуучны 8283
▁хуш 8284
▁хушуу 8285
▁хуя 8286
▁хуяг 8287
▁хү 8288
хү 8289
▁хүд 8290
▁хүж 8291
▁хүз 8292
▁хүзүү 8293
▁хүзүүн 8294
▁хүзүүний 8295
▁хүй 8296
хүй 8297
▁хүйс 8298
▁хүйсийн 8299
▁хүйтэн 8300
▁хүл 8301
хүл 8302
▁хүлц 8303
▁хүлэг 8304
▁хүлэмж 8305
▁хүлээ 8306
▁хүлээдэг 8307
▁хүлээж 8308
▁хүлээл 8309
▁хүлээн 8310
▁хүлээнэ 8311
▁хүлээсэн 8312
▁хүлээх 8313
▁хүм 8314
▁хүмүү 8315
▁хүмүүж 8316
▁хүмүүжил 8317
▁хүмүүжилд 8318
▁хүмүүжлийн 8319
▁хүмүүжүүлсэн 8320
▁хүмүүжүүлэх 8321
▁хүмүүн 8322
▁хүмүүнд 8323
▁хүмүүний 8324
▁хүмүүнийг 8325
▁хүмүүнлэгийн 8326
▁хүмүүнээ 8327
▁хүмүүс 8328
▁хүмүүсийг 8329
▁хүмүүсийн 8330
▁хүмүүст 8331
▁хүмүүстэй 8332
▁хүмүүсээс 8333
▁хүн 8334
хүн 8335
▁хүнгүй 8336
▁хүнд 8337
▁хүндийг 8338
▁хүндлэл 8339
▁хүндр 8340
▁хүндрэл 8341
▁хүндрэлтэй 8342
▁хүндтэй 8343
▁хүндэлдэг 8344
▁хүндэлж 8345
▁хүндэт 8346
▁хүндэтг 8347
▁хүндэтгэл 8348
▁хүндэтгэлтэй 8349
▁хүндэтгэн 8350
▁хүндэтгэх 8351
▁хүндээ 8352
▁хүний 8353
▁хүнийг 8354
▁хүнийхээ 8355
▁хүннү 8356
▁хүнс 8357
▁хүнсний 8358
▁хүнтэй 8359
▁хүнээ 8360
▁хүнээр 8361
▁хүнээс 8362
▁хүр 8363
▁хүрг 8364
▁хүргэв 8365
▁хүргэдэг 8366
▁хүргэж 8367
▁хүргэн 8368
▁хүргэнэ 8369
▁хүргэсэн 8370
▁хүргэх 8371
▁хүрд 8372
▁хүрдэг 8373
▁хүрлээ 8374
▁хүрнэ 8375
▁хүрсэн 8376
▁хүрт 8377
▁хүртлээ 8378
▁хүртсэн 8379
▁хүртэж 8380
▁хүртэл 8381
▁хүртэлх 8382
▁хүртэх 8383
▁хүртээ 8384
▁хүртээжээ 8385
▁хүртээл 8386
▁хүртээмж 8387
▁хүрч 8388
▁хүрчээ 8389
▁хүрэв 8390
▁хүрэл 8391
▁хүрэлц 8392
▁хүрэм 8393
▁хүрэн 8394
▁хүрэх 8395
▁хүрэхгүй 8396
▁хүрэхийн 8397
▁хүрэхэд 8398
▁хүрээ 8399
▁хүрээг 8400
▁хүрээгүй 8401
▁хүрээд 8402
▁хүрээл 8403
▁хүрээлэн 8404
▁хүрээнд 8405
▁хүрээний 8406
▁хүс 8407
▁хүсвэл 8408
▁хүсдэг 8409
▁хүснэ 8410
▁хүснэгт 8411
▁хүссэн 8412
▁хүсч 8413
▁хүсэж 8414
▁хүсэл 8415
▁хүсэлт 8416
▁хүсэлтэй 8417
▁хүсэн 8418
▁хүсэх 8419
▁хүсэхгүй 8420
▁хүсээгүй 8421
▁хүү 8422
хүү 8423
▁хүүг 8424
▁хүүгийн 8425
▁хүүгийнхээ 8426
▁хүүгээ 8427
▁хүүр 8428
▁хүүрш 8429
▁хүүршүүлэн 8430
▁хүүтэй 8431
▁хүүх 8432
▁хүүхд 8433
▁хүүхдийг 8434
▁хүүхдийн 8435
▁хүүхдийнхээ 8436
▁хүүхдүүд 8437
▁хүүхдүүдийг 8438
▁хүүхдүүдийн 8439
▁хүүхдүүдэд 8440
▁хүүхдүүдээ 8441
▁хүүхдэд 8442
▁хүүхдээ 8443
▁хүүхэд 8444
▁хүүхэддээ 8445
▁хүүхэдтэй 8446
▁хүүхэдтэйгээ 8447
▁хүүхэн 8448
▁хүч 8449
▁хүчийг 8450
▁хүчил 8451
▁хүчин 8452
▁хүчинд 8453
▁хүчинтэй 8454
▁хүчир 8455
▁хүчирхий 8456
▁хүчирхийлэл 8457
▁хүчирхэг 8458
▁хүчит 8459
▁хүчл 8460
▁хүчний 8461
▁хүчтэй 8462
▁хүчээ 8463
▁хүчээр 8464
▁хх 8465
▁ххк 8466
хыг 8467
хын 8468
▁хэ 8469
хэ 8470
▁хэбэй 8471
▁хэв 8472
▁хэвийн 8473
▁хэвл 8474
▁хэвлий 8475
▁хэвлийн 8476
▁хэвлүүлсэн 8477
▁хэвлэгдсэн 8478
▁хэвлэл 8479
▁хэвлэлийн 8480
▁хэвт 8481
▁хэвтүүл 8482
▁хэвтэж 8483
▁хэвтээ 8484
▁хэвш 8485
▁хэвшлийн 8486
▁хэвээр 8487
▁хэвээрээ 8488
хэг 8489
▁хэд 8490
▁хэдий 8491
▁хэдийгээр 8492
▁хэдийн 8493
▁хэдхэн 8494
▁хэдэн 8495
хэж 8496
▁хэзээ 8497
хэй 8498
▁хэл 8499
▁хэлб 8500
▁хэлбэл 8501
▁хэлбэр 8502
▁хэлбэрийг 8503
▁хэлбэрийн 8504
▁хэлбэрт 8505
▁хэлбэртэй 8506
▁хэлбэрүүд 8507
▁хэлбэрээр 8508
▁хэлдэг 8509
▁хэлж 8510
▁хэлжээ 8511
▁хэлийг 8512
▁хэллэг 8513
▁хэллээ 8514
▁хэлм 8515
▁хэлмээр 8516
▁хэлний 8517
▁хэлнэ 8518
▁хэлнээ 8519
▁хэлрүүн 8520
▁хэлсэн 8521
▁хэлтэс 8522
▁хэлхээ 8523
▁хэлц 8524
▁хэлэв 8525
▁хэлэгтүн 8526
▁хэлэлц 8527
▁хэлэлцүүл 8528
▁хэлэлцүүлгийн 8529
▁хэлэлцүүлэг 8530
▁хэлэлцэж 8531
▁хэлэлцэх 8532
▁хэлэлцээр 8533
▁хэлэн 8534
▁хэлэнд 8535
▁хэлэх 8536
▁хэлэхгүй 8537
▁хэлэхдээ 8538
▁хэлэхэд 8539
▁хэлээ 8540
▁хэлээд 8541
▁хэлээр 8542
▁хэм 8543
▁хэмжих 8544
▁хэмжүүр 8545
▁хэмжээ 8546
▁хэмжээг 8547
▁хэмжээгээр 8548
▁хэмжээнд 8549
▁хэмжээний 8550
▁хэмжээтэй 8551
▁хэмн 8552
▁хэмнэл 8553
▁хэмээ 8554
▁хэмээв 8555
▁хэмээвээс 8556
▁хэмээгд 8557
▁хэмээгч 8558
▁хэмээгээд 8559
▁хэмээдэг 8560
▁хэмээж 8561
▁хэмээжүхүй 8562
▁хэмээжээ 8563
▁хэмээл 8564
▁хэмээмүй 8565
▁хэмээн 8566
▁хэмээнэ 8567
▁хэмээсэн 8568
▁хэмээх 8569
▁хэмээхүйд 8570
▁хэн 8571
хэн 8572
▁хэнг 8573
▁хэнгэрэг 8574
▁хэнд 8575
хэндээ 8576
▁хэний 8577
▁хэнийг 8578
▁хэнтэй 8579
хэнэ 8580
▁хэнээс 8581
▁хэр 8582
хэр 8583
▁хэрвээ 8584
▁хэрг 8585
▁хэргийг 8586
▁хэргийн 8587
▁хэргэм 8588
▁хэргэмийг 8589
▁хэргээ 8590
▁хэрлэн 8591
▁хэрмийн 8592
▁хэрнээ 8593
▁хэрүүл 8594
▁хэрх 8595
▁хэрхэн 8596
▁хэрц 8597
▁хэрцгий 8598
▁хэрэв 8599
▁хэрэвзээ 8600
▁хэрэг 8601
▁хэрэггүй 8602
▁хэрэгж 8603
▁хэрэгжиж 8604
▁хэрэгжилт 8605
▁хэрэгжилтийг 8606
▁хэрэгжих 8607
▁хэрэгжүүлж 8608
▁хэрэгжүүлнэ 8609
▁хэрэгжүүлэх 8610
▁хэрэгжүүлэхэд 8611
▁хэрэгл 8612
▁хэрэглэгд 8613
▁хэрэглэдэг 8614
▁хэрэглэж 8615
▁хэрэглэлд 8616
▁хэрэглэнэ 8617
▁хэрэглэсэн 8618
▁хэрэглэх 8619
▁хэрэглэхийг 8620
▁хэрэглээ 8621
▁хэрэгс 8622
▁хэрэгсэл 8623
▁хэрэгт 8624
▁хэрэгтэй 8625
▁хэрэгц 8626
▁хэрэгцээ 8627
▁хэрэгцээг 8628
▁хэрэгцээнд 8629
▁хэрэгцээтэй 8630
▁хэрэй 8631
▁хэрэм 8632
▁хэрээр 8633
▁хэрээс 8634
▁хэс 8635
▁хэсгийг 8636
▁хэсгийн 8637
▁хэсгээр 8638
▁хэсгээс 8639
▁хэсэг 8640
▁хэсэгт 8641
▁хэсэгчлэн 8642
▁хэт 8643
▁хэтр 8644
▁хэтэр 8645
▁хэтэрхий 8646
▁хэц 8647
▁хэцүү 8648
▁хэчнээн 8649
▁хэшиг 8650
▁хээ 8651
хээ 8652
▁хээл 8653
▁хээр 8654
хээр 8655
▁хээрийн 8656
хээс 8657
▁хя 8658
▁хяд 8659
▁хязгаар 8660
▁хязгааргүй 8661
▁хязгаарлагд 8662
▁хязгаарлагдмал 8663
▁хязгаарлалт 8664
▁хязгаарлах 8665
▁хязгаарт 8666
▁хязгаарыг 8667
▁хял 8668
▁хялбар 8669
▁хялбархан 8670
▁хям 8671
▁хямд 8672
▁хямр 8673
▁хямрал 8674
▁хян 8675
▁хянаж 8676
▁хяналт 8677
▁хяналтын 8678
▁хянан 8679
▁хянах 8680
▁хяр 8681
▁хятад 8682
▁хятадад 8683
▁хятадууд 8684
▁хятадын 8685
▁хятан 8686
▁ц 8687
ц 8688
▁ца 8689
▁цаа 8690
цаа 8691
▁цаад 8692
▁цааз 8693
▁цаазаар 8694
▁цаана 8695
▁цаас 8696
▁цаасан 8697
▁цааш 8698
▁цаашаа 8699
▁цаашдаа 8700
▁цаашдын 8701
▁цаашид 8702
▁цав 8703
▁цавч 8704
▁цаг 8705
цаг 8706
▁цагаа 8707
▁цагаад 8708
▁цагаадай 8709
▁цагаан 8710
▁цагаар 8711
▁цагаас 8712
▁цагдаа 8713
▁цагдаагийн 8714
▁цагийг 8715
▁цагийн 8716
▁цагт 8717
▁цагтаа 8718
▁цад 8719
цаж 8720
▁цай 8721
▁цайл 8722
▁цайны 8723
▁цал 8724
▁цалин 8725
▁цам 8726
▁цамн 8727
▁цамнадаг 8728
▁цамц 8729
▁цан 8730
цан 8731
▁цар 8732
цар 8733
▁царай 8734
▁царайг 8735
▁царайтай 8736
▁цас 8737
▁цах 8738
▁цахил 8739
▁цахилгаан 8740
▁цахим 8741
▁цац 8742
цгаа 8743
цгийн 8744
цгоо 8745
цгээ 8746
▁це 8747
▁цезар 8748
▁цезарь 8749
ци 8750
цийг 8751
цийн 8752
▁цир 8753
▁цо 8754
▁цог 8755
цог 8756
▁цогт 8757
▁цогц 8758
▁цол 8759
▁цолт 8760
▁цолтой 8761
▁цолыг 8762
▁цом 8763
▁цоор 8764
▁цор 8765
▁цорж 8766
▁цорын 8767
▁цох 8768
▁цохи 8769
▁цохигд 8770
▁цохиж 8771
▁цохилт 8772
▁цоч 8773
▁цөл 8774
цөлд 8775
▁цөм 8776
▁цөмийн 8777
▁цөмөөрөө 8778
▁цөө 8779
▁цөөн 8780
▁цөөнгүй 8781
▁цөөр 8782
▁цөөхөн 8783
▁цөс 8784
▁цөсийг 8785
▁цөх 8786
▁цөц 8787
▁цөцгийн 8788
▁цу 8789
▁цув 8790
▁цуваа 8791
▁цувр 8792
▁цуврал 8793
▁цуг 8794
▁цугл 8795
▁цуглаан 8796
▁цуглар 8797
▁цуглуул 8798
▁цуглуулах 8799
▁цуглуулж 8800
▁цул 8801
▁цус 8802
▁цусаар 8803
▁цусан 8804
▁цусм 8805
▁цусны 8806
▁цусыг 8807
▁цут 8808
▁цуу 8809
▁цуур 8810
▁цух 8811
▁цуц 8812
▁цүн 8813
цын 8814
▁цэв 8815
▁цэвдэн 8816
▁цэвэг 8817
▁цэвэр 8818
▁цэвэрлэж 8819
▁цэвэрлээд 8820
▁цэвээн 8821
▁цэг 8822
▁цэгт 8823
▁цэгц 8824
▁цэд 8825
▁цэдэн 8826
▁цэл 8827
▁цэн 8828
▁цэнг 8829
▁цэнх 8830
▁цэнхэр 8831
▁цэнэ 8832
▁цэнэг 8833
▁цэр 8834
цэр 8835
▁цэрг 8836
▁цэргийг 8837
▁цэргийн 8838
▁цэргүүд 8839
▁цэргүүдийг 8840
▁цэргүүдийн 8841
▁цэргүүдэд 8842
▁цэргээ 8843
▁цэргээр 8844
▁цэрэг 8845
▁цэрэгт 8846
▁цэрэгтэй 8847
▁цэрэн 8848
цэрэн 8849
▁цэрэнд 8850
▁цэрэндорж 8851
▁цэрэндоржийн 8852
▁цэц 8853
▁цэцгийг 8854
▁цэцгийн 8855
▁цэцийн 8856
▁цэцэг 8857
цэцэг 8858
▁цэцэгдэлгэр 8859
▁цэцэн 8860
▁цэцэр 8861
▁цэцэрлэг 8862
▁цэцэрлэгийн 8863
▁цэцэрлэгт 8864
▁цээ 8865
▁цээж 8866
▁цээжний 8867
▁цээр 8868
▁цээрл 8869
▁цээрлэдэг 8870
▁цянь 8871
▁ч 8872
ч 8873
▁чав 8874
▁чаг 8875
▁чагн 8876
▁чад 8877
▁чадаагүй 8878
▁чадав 8879
▁чадавх 8880
▁чадавхи 8881
▁чадаж 8882
▁чадал 8883
▁чадалгүй 8884
▁чадалтай 8885
▁чадамж 8886
▁чадах 8887
▁чадахгүй 8888
▁чадвал 8889
▁чадвар 8890
▁чадвараа 8891
▁чадварлаг 8892
▁чадвартай 8893
▁чадварыг 8894
▁чадварын 8895
▁чаддаг 8896
▁чаддаггүй 8897
▁чаджээ 8898
▁чадлаа 8899
▁чадлыг 8900
▁чадмуй 8901
▁чадна 8902
▁чадсан 8903
▁чадсангүй 8904
▁чал 8905
▁чам 8906
▁чамаас 8907
▁чамайг 8908
▁чамд 8909
▁чамтай 8910
▁чан 8911
чан 8912
▁чанаж 8913
▁чанар 8914
▁чанартай 8915
▁чанарыг 8916
▁чанарын 8917
▁чанга 8918
▁чангаар 8919
▁чангал 8920
▁чанд 8921
▁чар 8922
чар 8923
▁чармай 8924
▁чармайлт 8925
▁чац 8926
чдад 8927
чдийг 8928
чдийн 8929
чдыг 8930
чдын 8931
▁че 8932
▁чи 8933
чи 8934
чив 8935
▁чиг 8936
чиг 8937
чигд 8938
▁чигл 8939
▁чиглүүлж 8940
▁чиглэл 8941
▁чиглэлд 8942
▁чиглэлийг 8943
▁чиглэлийн 8944
▁чиглэлээр 8945
▁чиглэсэн 8946
▁чигээрээ 8947
чид 8948
чиж 8949
▁чий 8950
▁чийг 8951
чийг 8952
чийн 8953
▁чийрэг 8954
▁чил 8955
чил 8956
чилгаа 8957
чилгээ 8958
чилж 8959
чилсан 8960
чилсэн 8961
▁чим 8962
чим 8963
▁чимэг 8964
чимэг 8965
▁чимэд 8966
▁чимээ 8967
▁чимээгүй 8968
▁чин 8969
чин 8970
▁чинг 8971
▁чингис 8972
▁чингисийн 8973
▁чингүүр 8974
▁чингэж 8975
▁чингэс 8976
чинд 8977
▁чиний 8978
▁чинсан 8979
▁чинхүү 8980
▁чинь 8981
▁чинээ 8982
▁чир 8983
чир 8984
чис 8985
чит 8986
▁чих 8987
чих 8988
чихаад 8989
чихаж 8990
чихвал 8991
чихгүй 8992
чихдаг 8993
чихдэг 8994
чихжээ 8995
чихлаа 8996
▁чихрийн 8997
чихсан 8998
чихсон 8999
чихсөн 9000
чихсэн 9001
▁чихэр 9002
чихээд 9003
▁чичир 9004
▁чичр 9005
чл 9006
члал 9007
члалын 9008
члан 9009
члах 9010
члол 9011
члон 9012
члох 9013
члэн 9014
члэх 9015
чний 9016
чны 9017
▁чой 9018
чой 9019
▁чон 9020
▁чоно 9021
▁чонын 9022
▁чө 9023
▁чөл 9024
▁чөлөө 9025
▁чөлөөг 9026
▁чөлөөлөх 9027
▁чөлөөний 9028
▁чөлөөт 9029
▁чөлөөтэй 9030
▁чөм 9031
▁чөөх 9032
▁чөтг 9033
▁чөтгөр 9034
чр 9035
чсөн 9036
чу 9037
чуг 9038
▁чул 9039
▁чулуу 9040
▁чулууг 9041
▁чулуугаар 9042
▁чулуун 9043
▁чун 9044
▁чуниа 9045
чууд 9046
чуудад 9047
чуудыг 9048
чуудын 9049
▁чуул 9050
▁чуулган 9051
▁чуулганд 9052
▁чуулганы 9053
▁чух 9054
▁чухаг 9055
▁чухал 9056
▁чухам 9057
▁чухамхүү 9058
чүүд 9059
чүүдийг 9060
чүүдийн 9061
чүүдэд 9062
чүүр 9063
чх 9064
чхаад 9065
▁чэн 9066
▁чэнзун 9067
▁чэр 9068
▁чэрби 9069
чээ 9070
чээр 9071
▁ш 9072
ш 9073
▁шаа 9074
шаа 9075
▁шааз 9076
шаан 9077
▁шаар 9078
▁шаард 9079
▁шаардаг 9080
▁шаардаж 9081
▁шаардах 9082
▁шаарддаг 9083
▁шаардлаг 9084
▁шаардлага 9085
▁шаардлагагүй 9086
▁шаардлагатай 9087
▁шаардлагыг 9088
▁шаардсан 9089
▁шав 9090
▁шавар 9091
▁шавь 9092
▁шаг 9093
▁шагдар 9094
▁шагжам 9095
▁шагн 9096
▁шагнал 9097
▁шагнан 9098
▁шад 9099
▁шадар 9100
▁шадарт 9101
▁шаж 9102
▁шажин 9103
▁шал 9104
▁шалгаж 9105
▁шалгалт 9106
▁шалгалтын 9107
▁шалгар 9108
▁шалгах 9109
▁шалгуур 9110
▁шалт 9111
▁шалтаг 9112
▁шалтгаа 9113
▁шалтгаал 9114
▁шалтгаалан 9115
▁шалтгаална 9116
▁шалтгаан 9117
▁шалтгаанаар 9118
▁шалтгааныг 9119
▁шам 9120
▁шан 9121
▁шанал 9122
▁шанд 9123
▁шанду 9124
▁шань 9125
▁шаньси 9126
▁шар 9127
▁шарав 9128
▁шарх 9129
▁шархад 9130
▁шархадсан 9131
▁шарханд 9132
▁шархыг 9133
▁шарыг 9134
▁шарын 9135
▁шат 9136
▁шатааж 9137
▁шатаж 9138
▁шаталсан 9139
▁шатанд 9140
▁шатны 9141
▁шах 9142
▁шахаж 9143
▁шахам 9144
▁шаш 9145
▁шашин 9146
▁шашны 9147
▁шашныг 9148
▁шв 9149
▁швед 9150
шг 9151
шги 9152
шгийг 9153
шгүй 9154
▁ши 9155
ши 9156
▁шив 9157
▁шивн 9158
▁шиг 9159
шиг 9160
шигч 9161
▁шигээ 9162
▁шид 9163
шид 9164
▁шиж 9165
шиж 9166
▁шизу 9167
▁ший 9168
▁шийд 9169
▁шийдвэр 9170
▁шийдвэрийг 9171
▁шийдвэрлэж 9172
▁шийдвэрлэх 9173
▁шийддэг 9174
▁шийдсэн 9175
▁шийдэг 9176
▁шийдэж 9177
▁шийдэмгий 9178
▁шийдэх 9179
шийн 9180
▁шийтг 9181
▁шийтгэл 9182
▁шийтгэх 9183
▁шил 9184
шил 9185
шилд 9186
▁шилдэг 9187
▁шилж 9188
шилж 9189
▁шилжиж 9190
▁шилжилт 9191
▁шилжин 9192
▁шилжих 9193
▁шилжсэн 9194
▁шилжүүлэн 9195
▁шилжүүлэх 9196
шилт 9197
▁шилтг 9198
▁шилэн 9199
▁шим 9200
▁шин 9201
шин 9202
шина 9203
▁шинг 9204
▁шингэн 9205
▁шингээ 9206
▁шинж 9207
▁шинжийг 9208
▁шинжил 9209
▁шинжилгээ 9210
▁шинжилгээний 9211
▁шинжлэх 9212
▁шинжтэй 9213
▁шинийн 9214
▁шинэ 9215
шинэ 9216
▁шинэлэг 9217
▁шинэтг 9218
▁шинэч 9219
▁шинэчилсэн 9220
▁шинэчл 9221
▁шинэчлэл 9222
▁шинэчлэлийн 9223
▁шинэчлэн 9224
▁шинээр 9225
▁шир 9226
шир 9227
▁ширт 9228
▁ширүүн 9229
▁ширхэг 9230
ширч 9231
▁ширээ 9232
▁ширээг 9233
▁ширээн 9234
▁ширээнд 9235
▁ширээний 9236
▁ширээт 9237
▁ших 9238
ших 9239
шлыг 9240
▁шо 9241
▁шог 9242
▁шонхор 9243
▁шоо 9244
▁шоол 9245
▁шор 9246
▁шорон 9247
▁шоронд 9248
▁шороо 9249
▁шоу 9250
▁шөл 9251
▁шөн 9252
▁шөнийн 9253
▁шөнө 9254
шөө 9255
▁шөр 9256
▁шөрмөс 9257
шр 9258
шсан 9259
шсэн 9260
▁шт 9261
штай 9262
▁шу 9263
шу 9264
▁шув 9265
▁шувуу 9266
▁шувууны 9267
▁шугам 9268
▁шуд 9269
▁шудар 9270
▁шударга 9271
▁шударгуу 9272
▁шудрага 9273
▁шул 9274
▁шулуун 9275
▁шум 9276
▁шун 9277
▁шунал 9278
▁шуньди 9279
▁шур 9280
▁шуу 9281
▁шуугиан 9282
▁шууд 9283
▁шуур 9284
шушэн 9285
▁шү 9286
▁шүд 9287
▁шүдний 9288
▁шүдээ 9289
▁шүл 9290
▁шүлэг 9291
▁шүр 9292
▁шүт 9293
▁шүтдэг 9294
▁шүтлэг 9295
▁шүтэж 9296
▁шүтэх 9297
▁шүтээ 9298
▁шүтээн 9299
▁шүү 9300
▁шүүг 9301
▁шүүгч 9302
▁шүүж 9303
▁шүүл 9304
▁шүүмж 9305
▁шүүмжил 9306
▁шүүн 9307
▁шүүр 9308
шүүр 9309
▁шүүс 9310
▁шүүсийг 9311
▁шүүх 9312
▁шүүхийн 9313
▁шүүхэд 9314
шэн 9315
шээ 9316
шээл 9317
▁шээс 9318
▁шээсний 9319
щ 9320
ъ 9321
▁ы 9322
ы 9323
▁ыг 9324
ыг 9325
ыгаа 9326
▁ын 9327
ын 9328
ынхаа 9329
ь 9330
ьд 9331
ьди 9332
ьдог 9333
ье 9334
ьё 9335
ьер 9336
ьж 9337
ьжоу 9338
ьс 9339
ьсон 9340
ьт 9341
ьтай 9342
ью 9343
ьютер 9344
ьюү 9345
ья 9346
ьяа 9347
▁э 9348
э 9349
▁эв 9350
эв 9351
▁эвгүй 9352
▁эвд 9353
▁эвдэж 9354
▁эвл 9355
▁эвлэр 9356
▁эвс 9357
эвс 9358
▁эвтэй 9359
эвч 9360
эвчлэн 9361
эвэл 9362
▁эвэр 9363
эвээс 9364
▁эг 9365
эг 9366
эгд 9367
эгддэг 9368
эгдсэн 9369
эгдэж 9370
эгдэл 9371
эгдэн 9372
эгдэнэ 9373
эгдэх 9374
эгийн 9375
▁эгн 9376
эгн 9377
▁эгнэгт 9378
эгнэж 9379
эгсэд 9380
эгт 9381
эгтийн 9382
эгтүн 9383
эгтэй 9384
▁эгч 9385
эгч 9386
эгчдийн 9387
эгчид 9388
эгчийн 9389
▁эгшиг 9390
▁эгэл 9391
▁эд 9392
эд 9393
▁эдгэр 9394
▁эдгээр 9395
▁эдгээрийг 9396
▁эдгээрийн 9397
▁эдгээрээс 9398
▁эдийн 9399
▁эдлэл 9400
▁эдлэх 9401
▁эдний 9402
▁эдүгээ 9403
эдэг 9404
эдэй 9405
▁эе 9406
эе 9407
▁эелдэг 9408
▁эер 9409
▁эерэг 9410
▁эж 9411
эж 9412
эжээ 9413
▁эз 9414
эз 9415
▁эзлэн 9416
▁эзлэх 9417
▁эзний 9418
▁эзэд 9419
▁эзэлдэг 9420
▁эзэлж 9421
▁эзэлсэн 9422
▁эзэм 9423
▁эзэмш 9424
▁эзэмшиж 9425
▁эзэмшил 9426
▁эзэмших 9427
▁эзэмшсэн 9428
▁эзэн 9429
▁эзэнд 9430
▁эзэнт 9431
▁эзэнтний 9432
▁эзэнтэн 9433
▁эй 9434
эй 9435
▁эйзенхау 9436
▁эйзенхауэр 9437
эйн 9438
▁эк 9439
▁экс 9440
▁эксп 9441
▁эл 9442
эл 9443
▁элб 9444
▁элбэг 9445
▁элбэгтийн 9446
элгүй 9447
▁элгэн 9448
▁элд 9449
элд 9450
▁элдэв 9451
элдэг 9452
элдэж 9453
элдэн 9454
элдэх 9455
▁элемент 9456
элж 9457
элжээ 9458
элз 9459
элийг 9460
элийн 9461
элнэ 9462
▁элс 9463
▁элсэн 9464
элсэн 9465
элт 9466
элтийг 9467
элтийн 9468
элтнүүд 9469
элтэй 9470
элтэн 9471
элүн 9472
элц 9473
▁элч 9474
▁элчийг 9475
▁элэг 9476
элэг 9477
▁элэгний 9478
элэн 9479
▁эм 9480
эм 9481
▁эмг 9482
эмгий 9483
▁эмгэг 9484
▁эмгэн 9485
▁эмгэнэлт 9486
эмж 9487
▁эмзэг 9488
▁эмийг 9489
▁эмийн 9490
▁эмнэл 9491
▁эмнэлгийн 9492
▁эмнэлэг 9493
▁эмнэлэгт 9494
эмсэг 9495
▁эмт 9496
эмүй 9497
▁эмх 9498
▁эмхэтг 9499
▁эмч 9500
▁эмчийн 9501
▁эмчилгээ 9502
▁эмчилгээний 9503
▁эмчл 9504
▁эмэг 9505
▁эмэгтэй 9506
▁эмэгтэйн 9507
▁эмэгтэйчүүд 9508
▁эмэгтэйчүүдийг 9509
▁эмэгтэйчүүдийн 9510
▁эмэгтэйчүүдэд 9511
▁эмээ 9512
▁эмээл 9513
▁эн 9514
эн 9515
энг 9516
▁энгийн 9517
энгийн 9518
энгүй 9519
энгэ 9520
▁энгэр 9521
▁энд 9522
энд 9523
эндорж 9524
эндоржийн 9525
▁эндүүр 9526
эндэв 9527
▁эндэг 9528
эндээ 9529
▁эндээс 9530
▁энер 9531
▁энерги 9532
эний 9533
энтэй 9534
▁энх 9535
энх 9536
энь 9537
эньзун 9538
▁энэ 9539
энэ 9540
▁энэн 9541
▁энэр 9542
▁энэрэл 9543
▁энэрэн 9544
▁энэрэнгүй 9545
▁энэтх 9546
▁энэтхэг 9547
▁энэтхэгийн 9548
▁энэтхэгт 9549
▁энэх 9550
▁энэхүү 9551
▁эр 9552
эр 9553
▁эрг 9554
эрг 9555
эргийг 9556
▁эргүүл 9557
▁эргүүлж 9558
▁эргүүлэн 9559
эргэд 9560
▁эргэж 9561
▁эргэл 9562
▁эргэлз 9563
▁эргэлзэж 9564
▁эргэлзээ 9565
▁эргэлт 9566
▁эргэн 9567
▁эргэх 9568
▁эргэц 9569
▁эргэцүүлэн 9570
▁эргээд 9571
▁эрд 9572
▁эрдмийн 9573
▁эрдэм 9574
▁эрдэмт 9575
▁эрдэмтэд 9576
▁эрдэмтэн 9577
▁эрдэн 9578
▁эрдэнийн 9579
▁эрдэнэ 9580
▁эрдэнэс 9581
▁эрдэнэт 9582
▁эрдэс 9583
▁эрж 9584
эрийн 9585
▁эрин 9586
▁эрлэг 9587
▁эрмэлз 9588
▁эрс 9589
▁эрсд 9590
▁эрсдэл 9591
▁эрсдэлд 9592
▁эрсдэлтэй 9593
эрсэн 9594
▁эрт 9595
эрт 9596
▁эртний 9597
▁эртнээс 9598
▁эруй 9599
▁эрүү 9600
▁эрүүгийн 9601
▁эрүүл 9602
▁эрх 9603
▁эрхбиш 9604
▁эрхгүй 9605
▁эрхийг 9606
▁эрхийн 9607
▁эрхин 9608
▁эрхлэгч 9609
▁эрхлэн 9610
▁эрхлэх 9611
▁эрхт 9612
▁эрхтэй 9613
▁эрхтэн 9614
эрхүү 9615
▁эрхш 9616
▁эрхшээл 9617
▁эрхэлдэг 9618
▁эрхэлж 9619
▁эрхэм 9620
▁эрхэмлэдэг 9621
▁эрхэнд 9622
▁эрхээ 9623
▁эрч 9624
эрч 9625
▁эрчим 9626
▁эрчимтэй 9627
▁эрчүүд 9628
▁эрэг 9629
эрэг 9630
▁эрэгтэй 9631
▁эрэгтэйчүүд 9632
▁эрэгтэйчүүдийн 9633
эрэгч 9634
▁эрэл 9635
▁эрэлхий 9636
▁эрэм 9637
эрэн 9638
▁эс 9639
эс 9640
▁эсвэл 9641
▁эсгий 9642
эсний 9643
эснээр 9644
▁эсрэг 9645
▁эсхүл 9646
▁эсэн 9647
эсэн 9648
▁эсэрг 9649
▁эсэргүүц 9650
▁эсэргүүцэл 9651
▁эсэх 9652
▁эсэхийг 9653
эсээр 9654
эт 9655
этг 9656
▁этгээд 9657
▁эф 9658
▁эх 9659
эх 9660
эхгүй 9661
эхдээ 9662
▁эхийг 9663
эхийг 9664
▁эхийн 9665
эхийн 9666
▁эхийнхээ 9667
▁эхл 9668
▁эхлэв 9669
▁эхлэл 9670
▁эхлэн 9671
▁эхлэх 9672
▁эхлээд 9673
эхлээр 9674
▁эхний 9675
▁эхнэр 9676
▁эхтэй 9677
эхүй 9678
эхүйд 9679
эхүйн 9680
эхүйц 9681
эхүүн 9682
▁эхчүүд 9683
▁эхчүүдэд 9684
▁эхэд 9685
эхэд 9686
▁эхэл 9687
▁эхэлдэг 9688
▁эхэлж 9689
▁эхэлжээ 9690
▁эхэллээ 9691
▁эхэлнэ 9692
▁эхэлсэн 9693
▁эхэн 9694
▁эхэнд 9695
▁эхэндээ 9696
эхээ 9697
▁эхээр 9698
эхээр 9699
▁эхээс 9700
эхээс 9701
▁эц 9702
эц 9703
▁эцгийн 9704
▁эцгийнхээ 9705
эцгээ 9706
▁эцсийн 9707
▁эцэг 9708
эцэг 9709
▁эцэгт 9710
эцэн 9711
▁эцэс 9712
▁эцэст 9713
▁эцэстээ 9714
▁эч 9715
эч 9716
▁эш 9717
эш 9718
▁ээ 9719
ээ 9720
ээг 9721
ээгүй 9722
ээгч 9723
ээгээд 9724
▁ээд 9725
ээд 9726
ээдэг 9727
ээдэй 9728
▁ээж 9729
ээж 9730
▁ээждээ 9731
▁ээжийг 9732
▁ээжийн 9733
▁ээжийнхээ 9734
▁ээжээ 9735
▁ээл 9736
ээл 9737
▁ээлж 9738
▁ээлжлэн 9739
ээлэг 9740
ээн 9741
ээнд 9742
ээний 9743
ээнээс 9744
▁ээр 9745
ээр 9746
ээрэй 9747
ээрээ 9748
▁ээс 9749
ээс 9750
ээсэй 9751
ээсээ 9752
ээтэй 9753
ээхэн 9754
ээч 9755
▁ю 9756
ю 9757
▁юань 9758
юань 9759
юг 9760
▁юй 9761
юй 9762
▁юм 9763
▁юмаа 9764
▁юманд 9765
▁юмгүй 9766
▁юмны 9767
▁юмс 9768
▁юмсан 9769
▁юмуу 9770
▁юмыг 9771
▁юн 9772
юн 9773
▁юнд 9774
▁юнь 9775
юр 9776
юс 9777
ют 9778
▁юу 9779
юу 9780
▁юуг 9781
▁юугаа 9782
▁юугаар 9783
▁юун 9784
▁юунаас 9785
▁юунд 9786
▁юуны 9787
▁юутай 9788
▁юү 9789
юү 9790
▁юүгээ 9791
▁юүгээн 9792
▁я 9793
я 9794
яа 9795
▁яав 9796
▁яаг 9797
▁яагаад 9798
▁яадаг 9799
▁яаж 9800
▁яам 9801
▁яаманд 9802
▁яамны 9803
▁яана 9804
▁яар 9805
▁яаралтай 9806
яас 9807
▁яасан 9808
яат 9809
▁яах 9810
▁яахав 9811
▁яахан 9812
▁яахин 9813
▁яв 9814
▁яваа 9815
▁яваад 9816
▁яваандаа 9817
▁явав 9818
▁явагдаж 9819
▁явагдах 9820
▁явагддаг 9821
▁яван 9822
▁явах 9823
▁явахаар 9824
▁явахад 9825
▁явахгүй 9826
▁явахдаа 9827
▁явахыг 9828
▁явбаас 9829
▁явган 9830
▁явдаг 9831
▁явдал 9832
▁явдалд 9833
▁явдл 9834
▁явдлыг 9835
▁явдлын 9836
▁явж 9837
▁явжээ 9838
▁явлаа 9839
▁явна 9840
▁явсаар 9841
▁явсан 9842
▁явтал 9843
▁явуул 9844
▁явуулан 9845
▁явуулах 9846
▁явуулдаг 9847
▁явуулж 9848
▁явуулжээ 9849
▁явуулна 9850
▁явуулсан 9851
▁явц 9852
▁явцад 9853
▁явцыг 9854
▁явчих 9855
▁яг 9856
яг 9857
ягмар 9858
▁яд 9859
▁ядаж 9860
▁ядан 9861
▁ядар 9862
▁ядарсан 9863
▁ядах 9864
▁ядахдаа 9865
▁ядуу 9866
▁ядуур 9867
▁ядуурлыг 9868
▁яз 9869
▁язгуур 9870
▁язгууртан 9871
▁язгууртнууд 9872
▁язгуурын 9873
▁ял 9874
▁ялаг 9875
▁ялагд 9876
▁ялагдал 9877
▁ялагдсан 9878
▁ялалт 9879
▁ялалтын 9880
▁ялан 9881
▁ялангуяа 9882
▁ялг 9883
▁ялгаа 9884
▁ялгааг 9885
▁ялгаагүй 9886
▁ялгаатай 9887
▁ялгавар 9888
▁ялгаварлан 9889
▁ялгагч 9890
▁ялгаж 9891
▁ялган 9892
▁ялгар 9893
▁ялж 9894
▁ялз 9895
▁ялсан 9896
▁ялт 9897
▁ям 9898
ям 9899
▁ямаа 9900
▁ямааны 9901
▁ямагт 9902
▁ямар 9903
▁ямарч 9904
▁ян 9905
ян 9906
▁янз 9907
▁янзаар 9908
▁янзтай 9909
▁янзын 9910
▁янь 9911
янь 9912
▁яп 9913
▁япон 9914
▁японы 9915
▁яр 9916
яр 9917
▁яриа 9918
▁яриаг 9919
▁яриад 9920
▁яриан 9921
▁ярианы 9922
▁яриг 9923
▁ярилц 9924
▁ярилцаж 9925
▁ярилцана 9926
▁ярилцах 9927
▁ярилцдаг 9928
▁ярилцлаа 9929
▁ярилцлага 9930
▁ярина 9931
▁ярих 9932
▁ярихад 9933
▁ярихыг 9934
▁яруу 9935
▁ярь 9936
▁ярьдаг 9937
▁ярьж 9938
▁ярьсан 9939
▁яс 9940
▁ясны 9941
▁ясыг 9942
▁ят 9943
<s> 9944
</s> 9945
