▁нь
▁юм
▁ч
▁энэ
▁нэг
▁байна
▁гэж
▁л
▁тэр
▁хоёр
▁бол
▁байсан
▁би
▁хүн
▁их
гүй
ыг
т
ийг
▁байдаг
ийн
▁онд
тай
▁байгаа
д
▁мянга
▁зуу
▁болно
▁та
▁р
▁байх
▁олон
тэй
ын
▁байлаа
г
▁бас
▁гэдэг
х
▁байв
▁мөн
▁дээр
аа
ч
▁гэсэн
сан
▁арван
▁бид
▁буй
▁сайн
▁юу
ж
аар
▁түүний
▁ямар
▁уу
▁болон
ан
▁бөгөөд
▁вэ
ээ
▁дээ
▁хаан
▁монгол
▁үед
▁нар
▁ба
▁нэгэн
аас
▁хөвгүүн
▁болсон
▁миний
▁хар
▁харин
▁болох
▁билээ
▁тэд
ээр
▁улс
▁тав
▁биш
▁удаа
с
л
даг
▁болж
▁ийм
▁гурав
▁д
▁чинь
жээ
▁шүү
▁ай
▁хэмээн
▁хэрэгтэй
и
гийн
ах
▁хүний
▁зүйл
▁чи
▁улсын
▁г
▁шиг
▁өөр
▁одоо
▁дараа
▁үг
▁өөрийн
▁зэрэг
ууд
▁авч
▁байж
р
▁үр
▁үйл
▁бүр
н
▁газар
▁б
▁учир
▁минь
▁эрх
▁хүмүүс
▁түүнийг
ээс
а
▁буюу
▁үгүй
▁болов
он
▁бүх
▁гэр
▁хийж
▁гэвч
▁дөрөв
▁төрийн
▁хамгийн
▁тухай
▁маш
▁хэн
сэн
▁ёстой
м
▁есөн
ий
ин
ш
даа
ц
▁гол
▁н
эн
▁с
▁эх
оо
▁зарим
в
ад
эх
▁бие
з
аж
на
▁өмнө
▁бий
ар
▁долоо
▁үй
▁төр
▁тус
▁үл
▁талаар
▁
▁сайхан
▁тийм
▁ес
▁цаг
▁хан
▁засаг
▁нэр
▁ажил
аад
▁илүү
▁үү
ай
▁арга
▁мэт
ав
▁байжээ
▁том
дээ
▁хэрэг
▁өдөр
▁манай
▁зургаа
▁хүүхэд
ид
▁найм
▁жил
▁гэхдээ
хан
▁гурван
үүд
эд
▁хорин
о
ал
▁сэтгэл
▁м
б
▁гар
▁багш
гаа
▁эс
▁хүү
▁т
у
▁залгамжилсан
▁хэдэн
ны
ᠰ
ᠦᠭᠡ
ᠷ
ᠬᠦ
▁даа
▁үүнийг
▁гэх
▁бус
▁эр
га
лаа
оор
▁цагаан
чин
▁хувьд
▁хүнд
▁гээд
▁тул
▁сан
▁үе
▁ав
▁тэдний
ь
я
▁бэ
▁хэл
▁бага
▁тэгээд
▁ер
▁хийх
сон
▁болжээ
оос
▁маань
▁намайг
▁чухал
эл
лан
од
▁шинэ
▁ш
дэг
▁надад
▁ур
▁ц
▁хааны
эж
▁дунд
▁х
▁ах
ол
ов
▁тулд
анд
▁муу
▁шар
к
ээд
ъ
▁гарч
▁байхгүй
▁ор
▁эдгээр
той
▁зөв
▁энд
▁хамт
▁бусад
▁он
ох
▁аж
лах
уудыг
▁орон
▁ар
өө
▁хууль
▁дээд
▁залгамжилжээ
гаар
аг
▁гүн
▁авах
▁хор
▁ийн
▁монголын
▁санаа
▁охин
гээ
▁болохоор
▁ирсэн
▁гэтэл
▁хүртэл
▁зөвхөн
▁энэхүү
▁өөрөө
▁арав
▁ал
▁болдог
▁эм
уу
е
гийг
▁жилийн
▁к
▁эд
▁аль
▁төрсөн
▁руу
▁бат
▁ус
▁ном
▁байдал
▁дотор
▁дөрвөн
▁үеийн
▁орж
▁таны
▁хөх
▁эцэг
ер
▁яагаад
уул
хаа
▁бүү
▁цэргийн
▁ир
▁түүнд
▁болой
▁а
▁хувь
▁ам
▁таван
▁цэрэг
лэн
▁ж
э
▁тайж
▁з
ний
▁тодорхой
▁сар
▁бар
чид
ил
ор
▁хийсэн
▁дуу
▁чин
▁болохгүй
ам
▁хэсэг
эв
▁гал
▁үнэн
▁адил
▁уг
гээр
лын
▁хот
ож
ог
▁дар
▁тэргүүн
▁ухаан
▁п
▁хүч
▁ван
▁бидний
▁олж
▁сарын
▁тал
▁хүүхдийн
▁нас
▁и
лэх
▁чадахгүй
▁гэдгийг
ат
▁эзэн
▁оны
▁авсан
сөн
▁яв
▁эсвэл
▁өндөр
хээ
▁хойш
▁ард
▁байр
чих
▁мөнгө
уулж
▁төлөө
▁тэрээр
▁дахин
▁ээ
▁ээж
өөр
ир
▁нарын
эг
▁уран
нд
ы
▁бодож
▁залуу
нэ
▁дүү
▁бод
▁бээр
▁биз
хэн
▁хэлсэн
өн
▁аав
▁ингэж
▁я
▁хайр
иг
▁засгийн
▁анх
ахгүй
▁боловч
▁дахь
п
▁яаж
▁явж
▁дүр
эр
уулсан
өөс
▁хэрхэн
үүлж
тан
▁хойно
▁нөгөө
▁өөрийгөө
▁зан
▁хоол
уудын
▁улсад
▁хий
▁асуудал
▁нийгмийн
уулах
▁хэр
оод
▁гучин
ахад
ү
▁алтан
ун
▁гэнэ
лийн
өх
▁үүний
▁үргэлж
▁тэнгэрийн
ик
▁бурхан
▁дараах
▁ахмад
▁оронд
▁хэрэв
▁ын
уур
▁хүнийг
▁явдал
▁бүрэн
▁хэлж
үүл
▁эл
▁аймгийн
▁тэнд
хай
▁эсрэг
▁мэдэх
▁зам
▁за
▁харж
▁тэднийг
▁түүх
▁хөл
үүлэх
▁найман
▁үндсэн
▁гэхэд
▁тухайн
өж
▁хүмүүсийн
▁ирж
▁тар
саар
▁ганц
аан
▁газрын
ас
▁айкс
▁нам
чийн
▁хэд
лийг
▁ил
ит
▁чингис
▁ёс
▁в
ана
энд
▁бүгд
▁ан
▁баруун
▁буруу
▁болоод
▁явах
▁өгүүлрүүн
▁хотын
жин
уй
тын
лаг
ис
▁өгсөн
алт
▁тавин
▁тэнгэр
▁түүнээс
▁тоо
уулан
▁толгой
▁дөчин
▁хэзээ
▁сургууль
вал
▁жишээ
▁лам
лэг
ган
▁мэд
▁тун
▁өгөх
▁бай
▁сая
▁хийдэг
▁холбоотой
алд
ен
▁үүнд
▁яг
▁хал
эй
лаж
▁сургуулийн
▁ху
▁уул
▁амьдрал
▁хур
▁гаргаж
▁долоон
▁ач
▁алга
▁төв
▁дай
▁өг
▁бүхий
▁зүйлийг
▁эрүүл
▁улаан
▁зарлиг
гаас
▁ф
▁эхнэр
▁үз
▁аллах
им
▁болгон
айн
▁шууд
▁нөхөр
▁байгааг
▁учраас
▁гарсан
▁ажээ
▁ажиллаж
▁байхад
▁өвчин
▁найз
▁ид
▁бөлгөө
их
онд
▁ас
▁зал
▁шаардлагатай
ос
▁болгож
▁ухааны
ааны
▁хөр
иж
▁албан
▁санал
▁амьд
▁хори
▁дав
▁хэв
▁мөр
▁хоёрдугаар
▁үзэл
▁ажгуу
ур
▁хүлээн
▁бүлгээ
▁ман
▁хийгээд
энэ
▁бичиг
лээ
▁зүүн
▁хэмээвээс
▁барьж
▁шинж
▁ун
▁аваад
▁эдүгээ
▁үнэхээр
уулдаг
үүдийг
▁аливаа
▁нийт
▁баг
▁ерөн
▁нүд
▁бүхэн
▁аа
▁ерөнхий
▁чанар
муй
▁дээрх
▁танд
өл
▁өгч
үү
▁баяр
▁гэвэл
▁урт
чууд
▁огт
чил
▁сул
ив
үүлсэн
▁хэмээх
▁түмэн
▁бор
▁хэлэх
дог
▁бүл
▁бараг
▁явсан
▁тас
▁дур
▁зууны
▁анхны
▁үх
▁сал
ул
▁далан
▁тиймээс
▁эмэгтэй
аагүй
▁гэв
▁дор
▁боломж
▁улам
▁бал
▁яр
▁орсон
▁өнөөдөр
агч
▁цагт
инд
▁шат
▁од
гаад
сээр
үүдийн
▁мэдэж
уун
▁ол
эм
▁зураг
▁яах
▁мэдээлэл
▁дэлхийн
▁хэмжээ
▁дээрээ
▁байдлаар
▁байдлыг
тг
▁чиний
▁мянган
▁наян
▁гарах
аасаа
▁монголчууд
▁бүтээл
▁хүүхдүүд
өг
▁үүрэг
доо
▁айл
▁ашиг
лыг
▁үндэс
▁шийдвэр
▁хичээл
▁уур
▁дуртай
элд
▁байвал
▁мах
гаж
▁энх
▁халуун
▁дал
тр
дын
▁нутгийн
▁хүчин
▁сууж
▁бүрийн
уудад
▁боловсролын
▁мэдэхгүй
▁сонс
▁тэг
▁оюун
▁насны
▁гаргах
▁урьд
▁жар
ааг
▁зуун
▁тэмдэг
лаад
▁ирэх
▁хэцүү
ф
▁у
▁дэргэд
▁чамайг
▁сүү
▁хэмээв
▁мод
▁хөрөнгө
▁өнгөр
хийн
▁байгаагүй
▁гадна
▁олгуулжээ
▁орчин
▁үүнээс
▁зохион
▁зах
▁төгс
үүлэн
▁хотод
от
▁аг
ахыг
▁дайн
уулна
▁жаран
▁хаа
▁тат
▁амь
▁гийн
▁хатан
▁байгаад
▁мөнх
даж
арч
▁мар
▁хөгжлийн
▁тэгвэл
▁болохыг
даггүй
▁тан
▁зүрх
▁амар
▁сур
▁сард
▁бу
ө
▁нууц
▁өөртөө
▁ирээд
▁даг
сны
▁ая
▁гэрийн
ет
▁нөхцөл
▁чадах
▁төрөл
▁буу
▁баатар
өөд
▁нарыг
▁түр
эхэд
▁дүн
▁гуч
▁ноён
▁жин
үн
▁мал
▁зар
▁дэлхий
▁шашны
▁зохиол
▁амьдралын
▁шөнө
▁ажиллагаа
▁утга
▁чамд
▁бүхнийг
▁зов
▁үзэж
▁хол
▁боллоо
▁хувийн
▁үздэг
▁хам
ээсээ
▁өргөн
▁өөрийнхөө
▁ингээд
▁орой
ус
▁баян
▁хуулийн
ом
▁бидэнд
▁сургуульд
иа
▁өглөө
▁ял
▁туслагч
▁мэргэжлийн
ст
▁хай
▁заавал
▁мэргэн
▁ажлын
▁ярьж
▁нутаг
ээн
▁алд
оно
▁орох
шил
▁зүйн
эхгүй
▁эхэлсэн
▁боломжтой
▁чиг
нээс
аараа
ээрээ
▁үндэсний
нийг
▁нүүр
▁ө
▁нарт
▁төдий
▁эртний
▁эрдэнэ
▁гуравдугаар
▁цус
▁тохиолдолд
▁мэдээж
▁иргэн
▁хэрэглэнэ
▁тод
▁удаан
▁дуус
▁дарга
▁болгох
гүйгээр
▁газарт
▁хөгжмийн
ааж
▁бичсэн
▁тавьж
▁шалтгаан
ье
ваас
▁үзэх
▁зур
сийг
▁шинжлэх
▁тэс
▁гэм
▁явдаг
вэл
▁тай
тал
▁зургаан
▁хат
▁өөрөөр
▁хятад
▁бололтой
▁өөрчлөлт
но
▁ийнхүү
▁аргагүй
чи
▁турш
▁эхийн
▁сүм
▁үгийг
▁хүүхдэд
лэж
▁сав
▁хатуу
тэйгээ
▁ханд
▁хугацаа
агийн
▁сургалтын
▁буур
гар
▁овоо
▁хөв
▁жижиг
сний
▁дугаар
тэн
элт
үүлдэг
эс
аал
элтэй
▁тэдэнд
▁хүмүүсийг
лж
▁өмнөх
▁амьдарч
▁тайлбар
▁эмч
▁баримт
▁хүрч
▁ажиг
▁өгнө
▁судалгаа
▁эз
▁төмөр
▁хүчтэй
ак
▁ту
▁хариу
рын
ес
▁дотоод
▁өр
▁өгүүл
▁гэмт
▁өнгөрсөн
▁сандаг
▁янз
▁асуудлыг
▁хүр
ран
дах
▁хугацаанд
▁ажиллах
аны
▁мэднэ
эгч
▁яс
▁тос
▁ихэд
▁дайны
▁өв
▁холбоо
▁байгуул
гасан
гд
▁ирэв
ей
үүр
▁бодол
өд
▁гадаад
▁дагуу
ист
оны
▁орны
ой
лоо
гал
▁эрхийг
▁эдийн
▁талын
▁морь
▁ихэнх
эхийг
▁хөдөлмөр
▁ди
▁ойр
дийн
гэн
ян
хийг
▁ү
▁хамгаалах
▁үзсэн
▁хад
▁хо
▁нийтийн
хон
▁эхлээд
▁чинхүү
▁хав
▁байгууллага
▁ул
аах
▁хэлбэл
мүй
▁хооронд
дан
▁э
▁хон
▁мэдлэг
санд
▁биеэ
рах
▁цол
▁бүсгүй
▁бүгдийг
дл
▁бул
▁тусгай
▁чадвар
дөг
▁боол
▁хүлээж
▁номын
▁эн
▁эрт
▁биеийн
▁ой
сыг
▁зав
▁үлдсэн
▁бөх
▁нэлээд
▁сум
▁чадна
үүлнэ
▁санд
▁энгийн
▁гэртээ
▁суурь
гын
▁үс
▁байхдаа
▁хувцас
▁давь
жил
ьд
▁иймд
▁зай
алж
▁сумын
арт
▁тэтгэсэний
▁тэгш
алтын
▁тань
▁рүү
▁орос
▁нарийн
▁зүй
▁бодит
▁яваа
▁таныг
жав
агдсан
▁талд
▁суу
▁үедээ
▁арай
дсан
▁хоёрын
▁ярих
тийн
▁боловсрол
▁дөрөвдүгээр
▁шашин
▁шагнан
▁амьтан
▁хүссэн
шин
▁шүүх
сийн
тайгаа
лэл
▁хэсэгт
▁хийнэ
ё
▁цэргүүд
▁мэнд
▁бүлэг
наас
▁сайд
▁аз
чилж
чдын
▁эрдэм
▁байдалд
▁гарын
▁ангийн
▁зүгээр
вар
▁ад
▁байхыг
▁зүйлийн
▁гаргасан
▁чаддаг
▁эхний
▁сүүлийн
▁итгэл
▁нэрт
▁хүмүүст
▁хэлбэр
▁ёсоор
▁харилцаа
▁доор
тээ
▁байсангүй
▁найр
лон
▁цэцэг
▁цай
▁ихээхэн
▁зориг
үй
ласан
▁хэрэггүй
таа
▁иймээс
▁хасах
▁ирлээ
▁цэвэр
өв
▁сүр
▁хас
▁хая
▁ух
лав
▁хөдөлгөөн
бал
▁эв
▁захир
▁цагийн
▁гэжээ
▁эг
лэсэн
оог
маар
▁настай
▁боддог
▁авдаг
ем
▁төрлийн
▁замаар
▁сэтгэлийн
▁ариун
▁хэм
▁жилд
▁эрхэм
өр
чл
▁дан
▁цааш
чээ
▁шал
аанд
▁зуур
ань
▁анд
▁дүрс
▁гэлээ
ины
▁нэн
тад
▁хоолой
▁гэрэл
ел
▁тогт
▁нийгэм
▁хэрэглэдэг
лг
▁бичиж
▁тавдугаар
▁хубилай
▁заримдаа
▁ялангуяа
▁өнгө
▁хэрэглэх
яа
▁төгссөн
▁соёл
▁олох
▁зас
▁буц
▁дэл
▁ган
▁манд
▁өвчнийг
▁хараад
▁оноос
▁төвд
▁гэрт
▁гарна
▁зогс
▁бодох
▁мэддэг
▁хотыг
▁гэнэт
▁ийг
▁бөө
гах
▁жаахан
▁явц
▁нд
▁сам
▁тойр
нө
▁биднийг
▁онцгой
▁зүг
▁бүс
▁сонин
▁ижил
гээс
▁шин
▁болгосон
агдаж
шиг
▁байдаггүй
▁тэгэхээр
▁усан
▁судалгааны
▁магадгүй
▁бос
▁хэлдэг
▁дээш
▁сэтг
▁хүс
▁хүүхдийг
▁иргэд
▁монголчуудын
тон
▁эхлэв
▁зөвшөөр
▁сурвалж
▁гоо
▁алдаа
бар
▁ажлыг
▁ё
▁бур
▁ойлгож
▁тэгж
▁суух
▁тооц
▁нутагт
▁хэрэглэж
▁хаана
▁амжилт
▁ашиглах
▁сэр
эт
▁тушаал
▁анагаах
дыг
▁уй
▁хангалттай
▁тү
▁дөч
▁хяналт
сныг
▁нөлөө
дал
алын
лох
▁усанд
▁анхаар
вол
гөө
ок
▁далай
арсан
чиж
хий
▁бүлийн
уулав
▁багшийн
аш
олт
чихсан
▁иржээ
▁бүрд
▁улсыг
▁шил
▁машин
▁шийд
▁зөөлөн
▁гуй
▁туслах
▁зад
▁эцэст
▁болбоос
гээрээ
▁гүйц
▁шан
▁хүсэл
▁хөгжим
эгд
▁жинхэнэ
▁хүргэж
▁юуны
хи
▁шударга
▁явна
▁дуул
▁о
▁гу
▁зорилго
▁хоног
алтай
▁урлагийн
▁төгөлдөр
▁түшмэл
эсэн
▁хэвт
▁усны
▁март
рыг
▁гардаг
▁авав
▁ду
▁засдаг
ич
▁чөлөө
ут
▁төлөв
▁болг
▁ажилладаг
маа
агд
▁хурдан
вээс
▁хязгаар
▁хойд
▁шах
▁сургалт
▁ахуй
▁үзүүлэх
▁хэт
▁урлаг
▁байнга
▁ная
▁өгөв
▁салбарын
охгүй
▁шинжилгээ
▁гайх
▁өвгөн
▁оролц
▁хүйтэн
▁шим
эрч
▁хадгал
▁итг
▁ойлгох
▁оруул
▁бич
▁тах
▁цөөн
▁эгч
▁хөн
▁барих
ху
▁уулз
▁таар
▁үнэндээ
▁уд
өөн
▁хутагт
▁су
▁танилц
▁ин
гыг
▁түүхийн
▁хэвээр
▁түм
ныг
▁замын
▁асуулт
▁эрг
ахын
▁үнэ
нээ
ийд
▁асар
мын
▁мөнхүү
лд
▁юань
▁хулгай
даад
хгүй
лал
▁судал
ли
▁эргэн
▁минут
▁ярилц
▁адилхан
▁тор
▁архи
▁хуур
▁ажилтан
▁хуучин
▁ану
▁хамаг
лана
▁боломжгүй
олд
▁сей
▁бэлэн
▁дэд
▁этгээд
▁амьдрах
▁элч
▁хоосон
ю
▁нэрийг
▁тайлан
▁хагас
▁гаруй
▁хүрг
▁амин
▁мэдээллийн
▁тусалсан
▁тэдгээр
ухуй
▁монголд
▁бууд
уг
▁зовлон
▁олз
▁бад
▁аюул
▁кино
▁бадаргуулт
▁хэрвээ
▁өгдөг
оогүй
▁амьдралд
▁шаардлага
▁дамж
жиж
▁ев
▁бр
гадаг
▁хэмжээний
▁чих
▁үйлд
уулга
▁танай
▁дараагийн
чуудын
▁эхлэн
ээгүй
▁дууд
чийг
▁өөрсдийн
▁холб
▁утгатай
▁тоглолт
▁ойлг
▁гоё
▁хошууны
▁үүр
үүн
чиг
▁гү
▁мэдээ
▁хаанд
▁чухам
▁мэдээл
▁газрыг
▁маргааш
▁ат
▁ороод
▁сах
ба
▁чан
▁хариул
▁үйлдвэр
▁зэ
▁чанартай
▁товч
▁сүүл
тыг
▁хөгжил
ьж
▁материал
▁зэвсэг
▁иргэний
гаараа
▁хүүхдээ
▁сурах
▁очиж
▁онгоц
хоо
▁үн
▁лав
▁доо
▁хийг
▁хэрэгжүүлэх
▁байгуулсан
асан
▁гүр
үүдэд
▁дам
үр
▁онцлог
▁хэдий
▁тавих
▁оруулж
▁авна
▁бусдын
▁тов
▁ий
▁байшин
▁түргэн
▁ей
агдах
▁талаас
лага
эхийн
өлт
▁харсан
▁зохи
▁тавьжээ
▁нүдний
аз
айг
▁юун
▁дахиад
амж
▁ромын
▁дагаж
▁сүлд
▁бодлого
▁айс
▁хүчирхэг
▁ажилд
▁үнэлгээ
▁харах
лагч
▁давхар
▁зүйлс
▁вангийн
▁амьтны
▁буян
▁байгалийн
дөө
▁өөд
▁ангид
▁очир
▁тогосын
▁өчүүхэн
эгтэй
▁сай
▁бурхны
▁унд
▁нис
▁тог
▁тустай
▁болтол
▁зөвлөмж
▁мэдээллийг
▁худалдаа
▁загвар
▁тухайд
▁ганцхан
▁хүрээнд
▁отго
▁иш
▁шир
▁ёсны
▁ордог
▁гуай
▁бэх
▁орчим
уйд
▁тусламж
▁шав
▁хяналтын
▁хэлэв
▁үзүүл
▁цөм
▁олсон
▁ен
▁алх
▁зэргийг
дар
▁сор
▁бэл
▁юмыг
▁морин
▁очих
наар
▁дүрэм
оон
▁суманд
гэр
ван
лэгч
▁үеэр
▁таал
▁газраа
▁улаанбаатар
▁уншиж
▁хой
▁учиртай
▁лугаа
▁дэх
▁өн
▁намар
▁тэм
▁саад
мийн
▁соёлын
▁айм
▁жаргал
▁засал
▁үлд
ек
лөг
▁бичгийн
▁гарт
тэл
▁томоохон
ших
▁дэв
▁аварга
▁яваад
лог
▁шид
▁дайсан
иан
▁эргэж
▁тохир
▁илгээ
аасан
▁ажиллагааны
▁байсныг
▁хэлээд
▁богд
▁өс
▁наад
▁хүрсэн
▁хил
▁нэгдсэн
ээж
тугай
▁бичих
▁нэгдүгээр
▁байгууллагын
▁эрхийн
▁европын
өхөд
▁хэмжээнд
▁нохой
▁амьсгал
шиж
▁шийдвэрлэх
▁хувир
▁дотроо
ахаар
▁даш
▁хөдөл
▁мин
гууд
▁өвөр
▁сурагч
▁доод
▁язгуур
▁харьц
▁гэрэлтийн
иц
▁ерөнхийлөгч
▁хэсгийг
▁зориулсан
▁мэргэжил
кс
▁зурагт
лагын
▁дүүр
▁явцад
ац
▁ня
арын
аб
▁тэв
▁чой
▁гагцхүү
из
▁үлгэр
▁чуулганы
▁хэвлэл
▁аваас
агтун
▁ингэснээр
▁сонсох
▁үеэс
лөө
▁дүгнэлт
▁хөөр
элж
▁алба
▁салбар
▁дасгал
гана
▁хүсч
▁аян
▁суув
уулжээ
шгүй
▁америк
▁дархан
▁ургамлын
эдэг
андаа
дорж
▁сол
▁идээ
▁тавьсан
▁далд
▁чанаж
▁гүйцэтг
▁хоёрыг
▁бүтэц
лээд
гээд
▁өвөг
▁инг
оох
▁тийн
▁сайтар
▁е
оол
▁дут
хүү
сн
▁үнэт
▁харц
▁анги
▁өгүүлсэн
▁амархан
▁дуугар
лаар
▁гэдгээ
▁хаш
▁лувсан
▁гараа
сын
хны
▁й
▁хятадын
▁зээл
▁хос
▁надаас
лээр
хад
эгт
▁чулуу
▁сэцэн
▁үнэл
ууг
▁зөр
▁харилцан
▁оруулах
▁тайван
▁гэгээн
▁эцсийн
▁дүүрэн
үүлээд
▁тухайлбал
▁эхлэх
▁эзэнт
▁урд
▁герман
агт
▁онол
▁шавь
лөн
▁зохиц
▁хөө
ед
▁унших
▁хамтран
▁аугаа
▁тур
▁гэрээ
▁үйлдэл
үүлжээ
дэггүй
▁зохиолын
вэй
▁франц
жаа
▁тэмдэглэсэн
▁нийл
члан
▁мэдрэмж
▁итгэж
▁зааж
жиг
▁давх
ев
▁чулуун
▁царай
▁үүрэгтэй
▁түшмэд
▁тэмүжин
▁мөнгөн
▁онц
▁бууж
▁хурал
▁хүнтэй
▁хурим
уулаад
▁олд
▁хөгж
▁жам
▁ов
игийн
▁хир
ладаг
▁хөг
▁аргаар
▁бодсон
▁хожим
▁зургадугаар
▁томил
мал
▁ойлголт
▁тогтоох
▁өм
▁санааг
▁дайнд
▁хүрэх
▁гиш
▁татаж
▁ирнэ
гоор
▁тусгаар
▁тариа
▁анг
▁хангах
сд
▁хувилгаан
▁хэлнэ
▁нэрлэдэг
▁хэлэхэд
▁эрхтэй
▁өвд
▁шив
▁яриа
▁хоорондоо
лөх
▁санаж
▁сонг
▁жишээлбэл
▁эндээс
▁ертөнц
▁чадсан
▁хөтөлбөр
▁зогсож
▁хань
▁эц
үүлэгч
▁дарж
▁жан
▁гадар
▁ердөө
▁зохих
▁зү
▁өмнөд
▁оролд
▁өөрсдөө
▁болгов
▁муухай
иул
▁анхаарал
▁чад
▁муж
▁хув
▁модон
▁түгээмэл
▁өрөө
элгүй
▁аас
▁урьдчилан
▁агуулга
▁мөх
▁орч
▁бэлэг
▁мэдэгд
наа
▁сэтгэлд
▁хэнд
▁ундрам
▁ажиллагааг
▁хадуулжээ
▁түүнчлэн
▁зэв
▁нэмэгд
эхүй
▁ю
▁үнэнийг
▁сон
▁үзнэ
дэн
▁засах
▁гут
▁явдлыг
гэх
оп
▁хойноос
▁байл
▁гаргадаг
▁үүд
орын
уулахад
▁ерөөлтийн
ээний
орж
▁нийслэл
▁боловсруулах
▁ут
▁түүхэн
тах
тайгаар
▁аймаг
▁асуу
▁орд
үүлэв
▁алаг
▁сайшаалт
гуу
▁мэтээр
▁бүт
▁сэтгэлийг
▁францын
уд
▁өргөж
▁нэмэлт
▁түүхийг
▁оч
▁цам
▁айлд
▁өвчний
▁байгаль
▁юунд
▁бүтэн
▁туш
▁допингийн
▁унш
▁өд
▁тол
▁хэрэгцээ
▁бил
▁илр
▁хэлээр
▁очоод
▁хөдөлмөрийн
▁хааныг
элийн
▁цац
онг
ага
тар
▁хүрээ
▁хурд
▁ургамал
▁аргыг
▁хоногийн
▁бэрхшээл
▁нааш
▁уулын
дэж
▁үзүүр
▁дундад
▁сонсож
аарай
▁яд
▁хошуу
▁бэлтгэл
▁эмийн
▁чадаагүй
▁хэрэгл
▁нэх
▁хөт
▁барил
▁мэдсэн
▁мэндийн
ва
▁хугацааны
▁давт
▁амьдардаг
▁гообар
▁магад
▁заа
ср
▁ны
▁гэдэгт
▁ялгаатай
▁цар
гоо
жавын
ноос
▁дээгүүр
▁тогтолцоо
▁нөхцөлд
ма
▁хөнгөн
▁иймэрхүү
▁удалгүй
▁алдсан
▁ажлаа
оосоо
▁зор
▁хийд
▁хуруу
▁өвлийн
▁сонссон
▁нөөц
▁дэм
▁хүүх
ель
уухан
▁худал
ооны
▁дэг
▁сонирхолтой
лэдэг
▁оршин
▁хийдийн
осон
▁мэдр
▁суул
▁зохиолч
▁түмний
огд
▁бүтээгдэхүүн
▁насанд
▁одоогийн
▁ардын
▁төвийн
▁ертөнцийн
▁төгсгөл
▁бодис
гуул
▁сөрөг
▁усыг
▁тарх
снийг
зан
▁алив
дад
▁удирдах
▁хүй
▁гараад
▁хандлага
тор
▁шагнал
▁дуугүй
▁зуунд
эхээр
иас
▁таа
▁гай
▁хоорий
▁зул
▁ахуйн
▁тохиолдол
ла
▁хариуцлага
▁гэд
▁мө
рав
▁тамир
▁байлгүй
▁хэргийг
▁тэн
▁навч
жих
ерийн
▁жүн
▁орно
▁хөвүүн
▁хамаагүй
▁өргө
▁олонх
▁сонсоод
гөн
▁хичээлийн
▁элс
лэгийн
▁зэрлэг
▁хэрэгж
▁ёр
▁учр
лагдсан
гу
▁эрэгтэй
▁ну
гав
▁шаг
▁зүйлд
▁нэгэнт
тны
илж
▁гураван
▁нээлттэй
▁тэмцэл
▁битгий
гай
лэв
▁хараа
▁багас
▁хүчний
▁чийг
▁цугл
▁алдар
▁талаарх
▁ярьдаг
▁дүгээр
лэнэ
▁шү
чир
▁номыг
▁суурин
▁болмуй
▁урс
▁унт
▁эмнэлгийн
▁өнөө
▁бэрхшээлтэй
▁сун
гч
▁хөнд
▁зөрчил
▁тэмц
▁тохиромжтой
▁амт
▁хуралд
▁голдуу
▁баялаг
▁долдугаар
▁богино
▁төлөвлөгөө
▁алдаг
▁бүртг
▁болчих
▁үүс
▁цогц
▁судлах
гэж
▁тэндээс
▁агаар
гаан
▁үйлийг
луулж
ганы
▁нот
эндээ
▁цэргийг
▁багт
▁ний
▁дүнд
▁нэм
▁өнөөгийн
▁чанарыг
өнө
үүний
▁ажилласан
▁там
▁өвчинд
▁аюулгүй
▁цахим
▁хөлс
▁жүжигчин
▁хандах
▁эрс
▁хэмжээгээр
▁жанжин
▁захирал
▁зүйтэй
▁мэс
▁бусдыг
▁ногоон
▁шилж
▁дээл
▁судар
▁явуулах
▁хамр
аана
▁түүнтэй
▁авт
▁байдалтай
▁үйлчилгээ
▁боломжийг
▁буцаж
▁мууд
▁байдлын
▁сүүлчийн
изм
оонд
▁хурлын
▁заяа
▁ангил
▁араас
▁хэрэгт
▁айж
▁жиг
▁тавь
чив
▁шор
▁бүтээ
▁хүрт
▁надыг
▁үнэнч
раа
▁бүжиг
▁сурч
▁сүсэг
▁түүн
▁мэө
▁олгох
▁өвөрмөц
▁ирдэг
алтыг
▁мон
▁иргэдийн
▁аллахын
▁төлбөр
нууд
▁хуудас
▁агуул
тн
▁анр
▁засахад
▁хэлний
▁санааны
▁дургүй
ээг
▁ыг
ги
▁даруй
юу
▁арил
▁сурагчид
▁жимс
▁юмаа
эмж
▁байтугай
▁мөрний
▁дорж
▁олг
снээр
▁туг
члэн
▁усаар
▁нэмсэн
▁тэтг
▁өнд
▁зүтг
▁шарх
▁тэнэг
амб
▁нэртэй
▁заасан
▁ян
▁сэргийлэх
наж
▁гүй
ууны
су
▁утас
▁хишиг
снаас
огийн
▁гарчээ
▁хэмээж
▁нур
▁юуг
инг
▁болгодог
▁дэмжих
▁өдрийн
▁зөвл
▁холбогдох
▁гишүүн
уудаа
▁үгээр
▁эвд
▁журам
▁бяцхан
▁сонирх
▁асан
хөө
рийн
▁төл
уудтай
▁бөгөөс
▁хандаж
▁амжилттай
▁ядаж
рийг
▁хамаар
▁бэрх
▁бүтээсэн
▁бэлгийн
▁эзэнтэн
▁хөгжүүлэх
▁бодлоо
▁эсэргүүц
▁зарц
▁хайртай
▁арьс
▁зэргийн
▁санхүүгийн
▁тоглох
орт
▁доош
▁яасан
▁цэрэн
▁чөлөөт
▁иргэнийг
▁буд
▁дууны
▁цэг
▁шийтг
▁амьдралыг
▁үзүүлэлт
▁давуу
▁зүйлээ
мс
ирч
▁явлаа
▁яам
▁ардчилсан
▁ярь
▁ажиллаг
сэнд
ийгээ
▁урсгал
▁амгалангийн
▁хү
аанаас
▁уламж
▁махыг
ээл
▁шүүхийн
▁хийлг
▁мэндэлжээ
одог
▁шалгалт
▁дэвш
▁төгрөг
бат
▁бодоод
▁суралц
▁нийц
▁эгшиг
▁хөдөө
▁нүх
снаар
▁үзэгдэл
▁үнэр
▁үхсэн
▁зун
▁бүхэнд
▁түвшинд
ман
▁ганцаар
▁гаргана
▁цаашид
▁замд
▁хоорондын
▁алдаж
▁луу
▁зуны
▁чөлөөтэй
▁дотно
▁гадагш
мб
▁хариулт
▁чим
▁тохи
гүүр
энг
▁бүхэл
▁түг
▁сэд
▁өдөрт
сангүй
▁гэгч
▁тэгэхдээ
угай
▁философи
▁оруулсан
▁дуулж
▁авлаа
мээр
▁оролцох
▁завхан
▁яахав
▁шагн
элтийн
длыг
анг
▁дайр
лаас
лүүлэх
▁үгэнд
▁нойр
▁агуу
огдох
▁үлэмж
▁ясны
ьс
▁тэрхүү
▁ёсгүй
▁хялбар
▁өөрт
▁өгөхгүй
▁хөөрхий
▁жүжиг
луулах
▁өрт
▁газраас
▁сүнс
▁чанга
об
▁идвэл
▁инээмсэг
▁тодорхойлох
оож
олж
▁пи
▁уя
▁цээрлэдэг
▁удирд
▁цээр
▁хонх
▁болоход
▁бөмбөг
▁цав
▁ирээдүй
▁үзвэл
▁зүйлсийг
▁үгийн
▁төдийгүй
▁буйг
▁дээрэм
▁харилцааны
лин
жүүлэх
▁хуульд
▁гад
длын
▁худалдааны
▁анхаарах
амд
▁байгуулах
таж
▁маргаан
▁арслан
гас
▁болгожээ
ашгүй
ио
өлд
▁бая
▁оросын
▁ашиглаж
▁төрийг
үүдээ
▁захиргааны
агчид
▁далайн
▁сүн
▁хувилбар
▁тулгуур
▁болтугай
▁улмаас
▁ха
▁загас
▁өрөөнд
▁кар
▁нуруу
▁хэмжээг
▁яамны
▁тэгэхэд
▁бэлтг
▁дол
▁дэлгэр
иар
▁идэж
дагч
▁хүмүүн
▁тэрэг
▁ордны
▁морины
длээ
▁хуулиар
▁есдүгээр
▁гэхээр
өгч
▁хугацааг
▁хэргийн
▁сууна
▁нөхөд
▁бүхний
▁наймдугаар
▁удам
▁гайхалтай
▁сү
▁буул
▁ширүүн
▁харахад
▁хурц
▁үнэлгээний
▁чам
▁анзаар
▁явуулж
эхээс
▁харагдаж
▁амс
▁тахилга
бэр
▁туул
▁намын
икийн
▁барив
▁салбарт
▁замыг
▁мэдэрч
▁байц
▁болсны
▁тоол
▁худалдан
▁фр
доржийн
▁жий
▁урагш
▁болгоно
ангийн
ахдаа
▁ялалт
▁уян
огч
▁тусам
иад
үхүй
▁зэм
▁одов
▁хүмүүнлэгийн
▁зүүд
▁харьяат
▁дөнгөж
▁хаанаас
▁нийгэмд
дийг
▁үзэгд
▁үзүүлж
▁шүт
лагдаж
▁хүүхэн
▁өвс
▁насан
▁тэнгэрт
▁хэрэгс
▁түүнийгээ
▁няц
чихсэн
▁хүрээд
▁алдартай
▁идэвхтэй
▁цэнг
▁өрн
▁дуулах
▁шүлэг
▁зана
▁суусан
▁эхэлжээ
тгал
оороо
▁чаддаггүй
ип
▁яруу
▁эрэг
оржийн
▁тэнх
лэлийг
▁даяар
гөөр
▁итгэлтэй
соор
▁эмээ
▁төрөх
▁ядуу
тол
жийн
▁сэл
▁гүйцэтгэх
▁эргэл
▁лүгээ
▁ям
▁зорилгоор
▁ром
▁хугар
▁хул
▁элэг
лэлийн
▁даасан
▁нүүдэл
амба
▁халд
▁татвар
хөн
▁харв
▁тоглоом
▁над
▁тасралтгүй
▁чадвартай
маг
ши
▁ялг
▁дэмжлэг
▁чадсангүй
▁авжаа
▁ом
эц
▁чимээ
▁үзэн
▁голын
мэл
▁төвлөр
▁ихтэй
гий
▁уух
члах
▁босг
▁гомдол
▁дугуй
▁бөг
▁бүтээх
▁ерөнхийдөө
▁холд
▁амгалан
▁санагдана
▁эхл
▁дутуу
▁хөвгүүд
▁цагийг
▁боловср
▁хаант
▁хөгжиж
▁гарга
▁жолоо
уулагч
▁нух
▁таг
▁хэлэлц
▁наран
иб
▁цэцгийн
▁идэх
▁хэлбэрээр
▁ашиглан
▁үд
▁ли
▁амын
мыг
▁гадуурх
▁эрж
▁бизнес
гааны
лэлд
▁хонины
▁сонголт
цаг
▁америкийн
▁чимэг
▁алж
▁тоглож
▁хохир
▁таньж
▁тэгсэн
▁санагдаж
▁аяа
▁дурдсан
▁оо
гам
адаг
▁ховор
▁унаж
▁английн
▁зорилготой
▁чиглэлээр
▁нүдэнд
▁талх
бай
▁мэнгэт
▁гүнгийн
ханд
▁хүлээ
▁зорилт
тний
▁үхэр
▁шинжилгээний
▁нуу
▁хя
▁хажуу
▁доторх
▁магт
▁хүнс
▁эхэлдэг
▁очсон
луулсан
ия
▁урв
▁түшээ
шир
▁тавьдаг
▁зайл
мийг
чүүд
▁манайд
▁нялх
▁цаана
▁ганцаараа
ийлг
хн
би
алц
▁хориг
▁ухааныг
▁хаг
▁өгчээ
▁бэр
▁нав
▁хэс
▁дом
асны
▁оров
▁дуучин
▁авчээ
▁сэтгэлээ
▁хоёул
▁уб
▁гр
▁дээж
▁догшин
▁оройн
▁нэмж
▁сонгуулийн
▁цаад
▁төсөл
баатар
тун
▁саран
▁тогтолцоог
элц
▁ст
▁шүтээн
▁эхэллээ
▁завсар
▁яар
▁шугам
▁бүтээж
▁тавина
лэлт
▁кр
▁түүгээр
▁сүмийн
сүрэн
▁эсэхийг
▁байгууллагууд
▁сонгодог
▁үлдээ
▁заан
цийн
▁харуул
▁сэдэв
▁мужийн
▁өссөн
▁охид
олоо
▁дотроос
▁ши
▁тэрбээр
▁нүдээ
▁түрхдэг
▁доорх
ум
дэл
▁харагдана
болд
▁май
саа
▁дэмий
▁байн
▁үүнтэй
▁танин
үүлэг
й
▁суд
▁толгойг
▁илгээв
▁жаргалтай
▁гун
▁хатааж
▁ихэвчлэн
▁морд
▁сэн
оход
▁шалгар
▁дундуур
▁талбай
▁хүчээр
▁суугаад
▁болор
лож
▁уламжлалт
▁болчихсон
уулалт
▁онолын
▁шилдэг
▁таних
элсэн
▁байгуулж
▁сайтай
▁тэгтэл
эгдсэн
▁сангийн
▁авир
ейн
▁харь
▁цалин
▁дүнг
▁гайхамшигтай
лалыг
ая
▁байтал
▁хамгаалалт
▁хамтын
▁хоцр
лөж
▁холбогдолтой
▁түвшин
▁эмэгтэйчүүд
▁гадуур
лалын
▁дүнтэй
▁англи
▁цох
▁хийхэд
▁соё
воос
▁дон
▁нэгд
▁бах
▁засагчийн
▁оролцож
▁хөлд
мж
▁мэл
▁тунхаг
▁тодр
▁будаа
▁турк
ожээ
▁байлд
▁цаас
▁оргил
▁нөлөөлөх
гор
▁арг
▁компани
▁кал
▁үзээд
▁сэтгүүл
▁бусдад
▁бахарх
▁тогтмол
▁төрүүлж
лагдах
▁зарчим
▁угсаа
▁дагуул
▁ихээр
төө
▁хасар
▁харамсалтай
▁биеийг
рэг
▁дээрээс
▁мор
▁япон
▁цагаа
▁унаг
▁төрж
▁түүхэнд
гэсэн
эвэл
▁руугаа
▁бүрт
ахаас
▁начин
▁толгойгоо
▁орших
гүүд
▁хун
иаг
▁дүрийн
гаагүй
▁хамгаа
▁шүүмж
вай
▁ерөөл
▁хуваалц
▁хуурай
эхдээ
▁энэтхэг
лагад
гэл
▁сургаал
▁мөрөөд
▁сүй
▁хүндэтг
▁болоогүй
▁зүү
▁айх
▁шинээр
▁шун
авч
тган
▁найралт
▁дайчин
▁ухаар
тнууд
дсэн
▁хоногт
▁гадаа
▁европ
▁урам
▁ашигтай
▁татах
▁цом
▁суралцаж
▁ялгаа
▁соёрх
дэх
▁хов
▁зөн
▁амиа
▁багийн
▁хэтэрхий
▁хаад
▁грек
▁ухаантай
▁цэц
▁хүмүүжүүлэх
▁кл
▁хороо
▁харанхуй
▁санаанд
▁хажууд
▁бэйс
▁зэргээр
▁тамирчин
эгчид
▁тавив
▁авьяас
▁эрдэмтэн
▁хийн
▁харан
гөл
▁ихэс
▁тогтоосон
тер
▁таларх
▁төвөдөөр
▁үсэг
▁санагддаг
▁техник
▁дэмж
▁арми
▁дайсны
▁үгээ
ни
▁төм
▁төсөөл
▁үнс
▁салхи
▁зая
▁үүднээс
▁түрүүнд
илг
ент
ег
▁одож
▁мэддэггүй
▁онцлогтой
▁египет
▁мэргэжлээр
▁улир
▁бэлчир
▁насандаа
сар
▁залуус
▁мус
оогоо
▁хүмүүстэй
▁байг
▁үйлдэлтэй
▁бүлг
▁хошуунд
▁өрсөлд
▁цохи
▁илтг
▁сэжиг
▁тусгайлан
▁хонь
▁өгүүлэх
▁байлдан
оосон
өөх
▁хуваарил
чдийн
▁элдэв
▁аюултай
баяр
▁хаалга
жилт
▁голомт
▁тох
▁удирдлагын
ардаг
огдсон
▁гартаа
▁оюутан
хайн
▁нэгийг
▁баяртай
ээдэг
▁шүтлэг
▁хэдхэн
▁байгаагаа
гуй
осын
руулах
▁ирэхэд
▁хэрэглэлд
оу
▁чанарын
▁тооны
иу
эгдэж
▁гаралтай
▁таш
▁зайлшгүй
▁цагдаа
▁ногоо
▁сүүдэр
▁амьдр
▁ажиллагаанд
▁хүнсний
▁нэвтр
▁олны
▁тайлга
▁буулгаж
дэд
▁авахыг
өөж
▁шалгуур
огт
▁гор
агдана
▁стандарт
галт
▁шөл
▁төс
▁эрхгүй
▁талтай
ээнд
▁мөнгийг
▁шийдсэн
▁ум
▁тийш
▁хөдөлж
▁нүб
▁бя
▁карл
▁хорт
▁мнт
▁асууж
▁хүлээл
▁гэс
▁шийтгэл
▁гишүүд
авын
▁алхам
▁адилгүй
лэгдсэн
өөсөө
▁чиглэл
▁цуг
▁хором
▁заслын
▁цагаас
▁алт
▁орш
▁гуниг
▁бэйл
▁дарх
өөний
▁төлөөлөгч
▁удирдагч
▁нягт
▁хэшиг
▁эхэлж
▁бүрэнт
▁шүд
төр
▁тоос
▁тогл
▁ойрт
лахыг
▁бүрэлд
▁шизу
цын
▁хум
эрт
▁зарлигаар
▁дун
▁зоос
▁үүргийг
▁эзлэн
▁бичгийг
хэг
▁систем
▁татгалз
▁хүснэгт
▁хадгалж
сэд
▁биед
▁инд
▁техникийн
▁хүчээ
▁эхэл
▁дуудаж
цгаа
▁цуглуулах
▁зүгээс
▁эргээд
иш
▁өл
▁хорвоо
▁сургуулийг
▁явуул
алсан
▁ухамсар
▁эмт
сугай
▁тэдгээрийн
▁ламын
▁эмэгтэйчүүдийн
▁хэвтүүл
▁барьсан
▁дандаа
ынхаа
▁харна
▁тогтоол
▁тойрон
▁сайхны
▁хүсдэг
▁ураг
▁шахам
▁үйлчл
алгүй
▁хүмүүж
▁шингээ
▁дах
▁гарав
▁явчих
▁тогтоо
▁эхэлнэ
лахад
▁үдэш
чихаад
▁заалт
▁ухаалаг
▁халамж
▁бэлчрийг
▁хүргэх
▁ходоод
лүүлж
▁өвөл
▁хэнийг
▁ялгаварлан
үл
▁бодлогын
▁илэрхий
▁бараа
▁зөвлөлийн
▁согт
▁хууд
▁хатгалд
▁харагдах
сад
чуудыг
ээрэй
гайн
▁тамга
▁бодно
▁хүртээжээ
▁биет
▁хувьсгал
▁хаашаа
▁бодоход
▁хүнээс
▁дэвтэр
▁өлзий
▁хачин
агдав
▁хүндтэй
▁хө
▁өөрийг
▁овог
▁чанд
▁ээр
▁хэллэг
▁хаврын
▁от
▁аар
▁эрсдэл
▁учрыг
үүс
▁дурс
▁овооны
▁халх
▁чихэр
▁сайжр
▁барилд
аалт
▁гүнж
▁хэмээгээд
▁гарган
▁тохиолд
рал
▁хүннү
▁ма
▁бүртгэл
▁яриаг
▁судлаач
▁өдр
▁кор
▁театрын
дэнэ
▁хэрэглээ
▁баймуй
▁барь
уйн
агүй
▁нөхц
▁сайжруулах
▁ууж
▁түрэг
ьт
▁бэлтгэх
▁түгээ
▁харуулж
ух
▁хэлрүүн
▁төвөд
▁тэжээ
▁нилээд
▁ис
нүүд
▁хүүгийн
▁му
▁чимээгүй
▁шулуун
▁биелүүлэх
▁тийшээ
▁тосгон
▁үеийг
агддаг
ноо
аач
чим
▁суудаг
▁байдгийг
▁тахих
тнүүд
▁үүссэн
▁чуулган
▁ертөнцөд
▁үзэхэд
түгэй
лээс
үг
▁оршиж
▁хэмээл
▁дарамт
▁бүтээлийн
▁зугаа
оорой
чүүдийн
▁ёсон
▁най
▁зөөл
▁тэмд
▁аяга
▁лай
агдан
▁байнгын
▁зэрэгцээ
▁арв
▁өөрчлөгд
▁онг
▁зэвсэгт
жаргал
▁цэцэрлэгт
длийг
▁нүгэл
▁бүгдээрээ
▁эмчилгээ
▁зүрхний
▁мөргөл
даас
▁цээж
▁авчирч
еп
▁зориул
▁дэс
чний
▁дуун
▁гав
▁германы
▁хож
▁засаж
▁шув
ойн
▁жижигхэн
▁хэдийн
▁хадгалах
снаа
▁лю
оз
▁элсэн
▁тэжээл
измын
▁үйлийн
▁зөвлөгөө
▁эрдэмтэд
▁ертөнцийг
▁хийхийг
▁сурсан
▁ос
▁африк
▁балга
▁биедээ
▁жад
▁хоёулаа
▁хуй
▁хөлөг
▁орнууд
▁илэрхийлэх
▁түүхтэй
ант
▁давс
▁нээж
▁эрч
энь
▁системийн
▁чар
▁гүйл
▁цэн
▁эзэмшсэн
▁бүрэлдэхүүн
▁бүлэгт
▁ойн
▁хүрэн
▁хүлээх
▁болруун
▁жи
▁хайрлах
▁өөх
▁уих
ингийн
гон
▁лх
▁гурил
огчид
▁үгүйс
▁байхын
ерт
▁ахай
▁мөч
▁гэн
▁бохир
▁раая
▁аван
▁махбод
▁халхын
▁хамгаалж
игд
▁байгуулалт
▁заншил
▁эмгэн
▁ноёрх
▁хуулийг
▁дэмжиж
▁халууныг
элз
▁ярьсан
▁сув
▁цахилгаан
▁ярилцлага
▁болз
алдан
▁зуурч
аав
саг
▁зориулж
▁бо
▁суулгах
▁элбэгтийн
▁нум
чилсан
▁түш
жид
сөөр
▁газр
▁үзүүлсэн
▁даруулж
▁хуул
▁хавар
▁галын
▁бэлтгэж
▁бичлэг
▁хөрш
▁цөөхөн
▁мөрөн
▁шувуу
баас
▁хүүхэдтэй
▁илт
▁сэм
▁амьдралаа
▁тархи
▁бодвол
▁байд
▁олгодог
▁талыг
▁ойлгуул
өөнд
▁хайрлаж
▁тр
▁дуугаар
элдэг
▁ёсыг
▁дууг
▁авгай
▁зөвлөл
▁биелүүлсэн
ондоо
▁айлт
▁хөд
▁гадаадын
▁байсаар
▁одон
▁яахин
▁эцгийн
▁алдарт
▁ноё
▁алс
▁өмс
▁үүсг
▁сахиус
▁яриад
▁долгор
▁янзын
▁зургийг
▁жон
▁хааяа
▁баатрын
▁бүлгийн
адын
▁тэмцэх
▁гарлаа
овын
▁хүүхдүүдийн
▁цөс
▁хүчийг
хыг
▁дэлгүүр
▁хашгир
▁нөг
насан
▁илгээж
▁зохиолыг
лууд
▁хөхний
▁өрнө
▁суралцах
ра
▁аюу
▁эхлэл
▁гахайн
▁эртнээс
▁хуримт
▁төсвийн
нах
▁жиш
вөл
уурч
▁уруу
▁хуурч
▁нөлөөлж
▁халдвар
▁төрөлхтний
▁сонгох
▁пар
▁түрэмгий
▁сохор
▁үхэх
▁уст
▁дагуулж
▁хэвийн
▁шуур
▁хайж
▁да
▁бөөгийн
▁сүх
▁хичээ
▁юманд
▁сянь
▁хоролмаа
логч
▁ашигладаг
▁уувал
гэ
илд
▁лу
▁айлын
▁европт
▁наранд
▁өвчтэй
▁хөөрхөн
▁үзэг
▁хөгшин
▁франк
ино
▁хөдлөх
▁шинжтэй
▁өвдөх
▁дэндүү
▁амьдар
▁байхаар
▁зол
▁эргэлз
▁дог
▁найруулагч
жоу
▁удирдамж
▁үндэстний
▁цэрэгт
▁тайш
▁сурдаг
▁навчны
эйн
▁нийтэд
▁оржээ
▁төслийн
▁хэлбэртэй
▁бүтээлч
▁түлх
▁ямагт
▁рав
ийх
гт
▁баахан
▁эерэг
▁тогтвортой
аадаг
оц
▁хуу
▁хэрэглэгд
▁хүүр
▁нэрээр
▁хэчнээн
▁тэднээс
▁хоолны
▁гэрээс
▁харьцангуй
▁хатг
▁тамхи
▁өөрсдийгөө
ект
▁амийг
▁хүсэлт
▁эцэс
▁тон
▁ажилдаа
▁морьд
▁нэмэр
▁надтай
▁хоёрт
цгээ
дээгүй
оодог
▁намрын
▁зохистой
▁захирагч
▁дий
▁ойлгосон
▁хөгжимд
▁үйлдвэрийн
▁санхүүжилт
▁загасны
жи
▁уушгины
▁сүүг
▁хэрх
▁дорнод
▁аад
▁шүүр
▁мөрг
▁сад
▁дулаан
▁сурагчдын
▁итгэх
▁шигээ
▁генерал
▁алдах
▁тэргүүний
▁гомд
охыг
▁явдл
▁хэ
▁сэтгэлээр
лагыг
▁хувьс
▁орлог
▁хүмүүжил
▁хөндий
▁орнуудад
өөрөө
бу
уудаас
▁модны
▁үзье
▁одсон
тгах
▁түрүү
▁дараагаар
▁жир
▁юутай
▁ойлгодог
▁амандаа
▁хэвтэж
үүхэн
▁хэвээрээ
▁түл
▁бариул
▁дурсамж
▁ноёд
▁хөхүүлэх
руун
▁кон
▁дханиа
ап
ина
▁болзошгүй
▁найзууд
▁бан
▁зод
▁сий
ноор
▁хэмээ
▁шөнийн
өдөг
▁хатгалдаж
▁үхрийн
руулж
▁аравдугаар
иф
аагаад
▁төсөв
▁оролцсон
▁бусдаас
▁жү
▁баяс
▁шоронд
омж
▁биеэр
▁битүү
▁мя
▁инээ
▁харагддаг
▁шороо
▁нийслэлийн
▁тахил
▁суудал
▁мөрдөн
▁хүрээл
▁тогтн
▁амил
▁сургуулиа
▁аш
▁адуу
▁үйлчилгээний
бэл
▁арилгадаг
▁хариуц
▁хэвлэлийн
▁магтаал
▁шинэчл
▁оюутны
▁туршид
▁өрхийн
ланд
▁ину
▁хяр
▁өөрчлөх
лэхгүй
▁гур
▁зовлонг
▁чадалтай
иал
▁явахад
▁хооллох
▁жирэмсэн
▁өгүүлэв
▁зөвшөөрсөн
▁хөгжилд
▁орн
▁хэсгийн
▁хавдар
▁отгон
▁чинсан
▁төрөлхтөн
▁байснаа
▁ахлах
▁өнгөтэй
▁нохойн
▁хугацаагаар
▁бичнэ
▁жим
▁дээдэс
▁баталгааж
▁хэний
▁санагд
▁хөрс
▁алах
▁олноо
▁сэрүүн
▁болохоос
▁судлалын
▁гудамж
▁аймагт
олын
▁даанч
▁хоцор
▁зуг
▁хальс
▁хольж
▁ханддаг
▁үрийг
▁өвчтөн
▁агт
▁манлай
лт
▁ахлагч
▁өргөмж
▁өдий
доггүй
▁золг
▁арилгах
лалтай
▁эмнэлэгт
▁нөлөөл
▁могой
▁өршөөл
▁чадавх
▁маяг
▁санаатай
▁хэлэгтүн
▁ялгар
▁төстэй
▁мэдмүй
▁зочид
▁хөлийн
▁насаа
▁угаа
▁шингэн
гүүдийг
▁амьтад
▁аргал
▁пр
▁давж
юй
▁өрөвд
▁зо
▁зовох
▁нэрлэж
▁зу
▁дагавар
эвч
агдаад
▁уураг
▁үйлс
▁ялгаж
▁судалж
▁даваа
▁шадар
▁болдоггүй
▁толгойн
ганд
▁жамуха
▁хамгаал
▁аажмаар
▁өгөдэй
▁өршөө
▁дэлхийд
▁азийн
▁байлдааны
▁сонгон
жухуй
▁эзэмш
▁ням
▁чамаас
▁тэмдэглэл
▁ганд
▁байрны
▁болсныг
▁ший
▁улмаар
▁байгуулагдсан
▁сөр
▁гэгээр
лажээ
▁солилц
▁байгууллагуудын
▁одоогоор
▁харвал
▁үгс
▁боловсруулсан
▁тогтсон
▁ёслол
өөнөөс
▁торгон
▁зэрэгт
▁үнэлэмж
▁нулимс
▁бөөр
▁сайнаар
▁тэмцэлд
▁суртал
▁хамтлаг
▁үзэгч
▁шул
▁цад
▁дэвсгэр
▁төөн
▁үнэм
▁зовж
▁хажуугаар
▁эсэх
▁зохицуулалт
▁жендэрийн
▁бузар
ийж
▁туурв
▁шүүмжил
▁үндэслэн
▁бариад
▁зүс
▁удирдлага
▁орныг
▁сонгосон
▁тайлбарлах
▁өшөө
▁тайлбарлаж
▁хүсэхгүй
эцгээ
▁өч
▁оюуны
▁боловсруулж
▁үндсэндээ
гаанд
▁даган
өөсөн
сээ
▁харамс
ль
▁александр
▁тусалж
лэгд
▁захирах
▁сүүлд
▁гэсгээ
шийн
▁чинг
▁атал
▁үүсгэж
▁үндэстэн
▁нартай
▁сууд
▁тулгар
үүх
▁аймшигтай
▁нү
▁тэдэнтэй
▁хэдийгээр
▁мөл
▁бурханы
▁баярлаж
▁жүжгийн
хар
▁асуусан
▁толь
▁гарвал
▁болд
ри
хаар
▁эхчүүд
▁төрх
лол
▁дамжуулан
▁харилц
▁гон
▁амр
▁хошин
▁авахад
▁саат
▁явдлын
▁ямааны
▁об
▁булаа
▁айдас
▁цөөнгүй
▁тайз
оф
▁үхэж
▁харуулсан
▁ухаанд
▁тххт
▁бууруулах
▁орх
▁хүүгээ
▁дул
▁гам
▁утгыг
▁тахилгын
▁те
▁шүл
▁хамтдаа
▁ноо
лсан
▁хаз
▁эзний
▁өгье
төн
▁өрг
▁гүрэн
аф
▁цааз
▁зэвс
пил
▁судалгаанд
▁туршлага
▁хүсэж
▁орондоо
▁зохиосон
▁утгаар
▁өлг
сэр
▁харилцааг
▁танил
▁харш
▁сүүгээр
▁жав
▁ясыг
▁хорыг
рэх
▁хэрэгсэл
▁сонирхол
▁хичээж
▁шарын
▁тайжийн
▁сэтгэлтэй
▁авахгүй
▁доллар
▁жуул
▁шур
▁хүзүү
▁зөвлөлд
▁өмнөөс
▁худалдаж
тнийг
▁цагдаагийн
▁сайш
▁цохилт
▁гуайн
▁зээр
▁жуу
отг
▁өөрчил
▁нэмэгдүүлэх
▁үзээгүй
гөх
▁тутам
лас
▁амьсгаа
▁тариал
▁цах
▁гүрний
▁чав
▁даалгавар
▁хоолойн
эхүйд
▁биел
▁үндэслэл
эсний
▁хэрээр
▁хоригл
▁хоолыг
▁хянах
▁эмнэл
▁чадварыг
шр
▁нэгж
▁хугарсан
▁албаны
▁улиран
▁орчинд
▁доогуур
▁гагц
▁гүнзгий
алдаг
▁шүүгч
▁аавын
анч
▁шээс
лагчид
▁ээд
▁үнээ
▁сургах
▁зөвлөх
▁эзэм
▁амьдралынхаа
▁дэлхийг
▁сөн
▁хорхой
▁жагсаал
гө
▁эзэмших
уулахыг
▁доройт
нээр
▁зээргэнэ
▁авчир
▁бүдүүн
▁хулгайч
▁сэрг
▁эрчим
снээс
▁саа
▁эхэн
▁эрүүгийн
▁морил
▁нараас
▁хичээлээ
▁чуниа
▁элбэг
▁хөрсний
▁лгбт
▁цог
▁тив
▁түлхүүр
▁занг
▁талхдаж
логдсон
▁суурилсан
▁тэнц
▁довт
▁хавсар
ха
▁сандагийн
лагаар
▁хагац
▁өгөөд
▁нийтлэг
нээсээ
▁цогт
▁арилгаж
лов
▁ээжийн
▁зохицуулах
▁угт
▁авар
▁бөөн
▁билэг
▁өвдсөн
▁дагаад
▁дэвшүүлсэн
▁өмч
▁тусалдаг
▁христ
өлөө
▁тахидаг
▁жив
▁бариг
▁нандин
▁чадал
▁бүд
▁бэхи
▁ердийн
▁уйл
▁чингэс
▁бут
▁зоригтой
ез
оотой
▁сид
▁ск
▁иргэдэд
▁тооцоол
▁цас
▁домог
▁шаардлагагүй
▁дорно
▁авга
▁ивээл
▁ойлгомжтой
лэгчид
▁оюут
▁мэдэл
▁овгийн
▁ургац
▁ариу
▁анхаарч
▁асуухад
▁киноны
▁цэцэрлэг
шгийг
▁нөлөөлдөг
▁ромчууд
▁оролцогч
▁дурд
▁нэгний
▁лээ
сү
▁удирдаж
▁тогтоож
▁амьтныг
▁шоу
▁жагс
▁уулзаж
▁эвлэр
▁гүйцэтгэдэг
▁орхисон
▁гаргажээ
▁байдлаас
▁явав
тгар
▁вен
▁хувааж
▁ширээт
лэгдэж
▁судлаачид
▁угааж
▁санах
▁бү
шг
▁баримжаа
▁удаагийн
▁нан
▁билиг
▁аймгууд
▁аврах
вой
▁лан
▁олонхдоо
▁асуудлаар
▁хүйсийн
▁туйлын
▁заг
▁тохой
▁сонсг
▁асуудалд
өм
саныг
▁бөөрний
▁залгамж
▁нуур
▁засагт
▁чоно
энтэй
▁соном
▁байлга
члал
▁хүйс
▁мул
▁жирийн
▁бэлг
▁дотоодын
▁лаг
даагүй
▁засвар
зүйн
▁үнэтэй
▁эрдмийн
▁өрсөлдөгч
▁бодлогыг
▁үнэг
▁нэгэнтээ
▁өрх
▁амж
▁хардаг
▁юмсан
▁хэлбэрийн
▁син
▁дэн
▁сүлжээ
▁тбб
▁хийхээр
▁саяхан
▁багагүй
▁нарны
▁орхив
▁мян
аст
▁үнэлгээг
▁хөлөө
▁туу
ооноос
▁дохи
▁өвдөг
вч
▁бүтээлийг
▁олб
▁аб
▁ажилтай
▁нэрийд
▁ге
▁юн
▁эзэлж
лалд
▁явахыг
▁овогт
▁оршино
▁цусыг
▁ядан
▁өөрчлөгдөж
▁шаардлагыг
▁шаталсан
▁дэлгэрэнгүй
агсад
вөөс
▁хөгжимдөх
▁үрийн
▁орлоо
▁тодорхойлсон
▁цусны
▁коллеж
▁гэдэс
▁асуудлууд
▁ойролцоо
▁өгөхийг
▁үтэр
▁хут
▁ми
алдаж
▁өдгөө
▁цув
сүгэй
▁дундаас
аатай
▁танхим
сдийн
▁тодорхойлж
▁үйлдсэн
▁эрхтэн
▁засгийг
▁жонон
▁бололц
өхгүй
▁орчны
▁хуан
тэйгээр
▁саналыг
▁цэр
тгаж
▁явуулсан
▁оролдлого
▁таамаг
▁судл
▁уулгавал
▁буддын
▁жу
▁зогсоох
▁колон
▁гаж
огдож
▁өөрчилж
▁барим
▁нэгтг
▁үжин
▁сахих
▁өөрийнх
▁сүмд
▁ог
▁өнгийн
▁хүрээлэн
▁той
▁бөгөөтөл
▁манж
▁шуньди
▁унасан
▁хуяг
саны
алз
жилж
▁хог
▁шаардаг
өс
▁роман
▁орнуудын
уулахаар
▁жолооч
▁аял
▁америкт
оё
хор
▁үнэлж
▁зөндөө
янь
даар
▁барин
▁агуулгыг
эхээ
▁виз
▁ноёны
гааж
▁мөрд
▁илэрхийлж
▁хураах
▁мэтийн
▁хүрдэг
▁ширээ
▁тохиолддог
▁нөхөн
▁нэрлэсэн
чдыг
▁түрхвэл
уулбал
▁төлж
▁үйлдвэрлэлийн
рэн
▁найрамдах
▁хүрээний
▁уна
▁эмчилгээний
▁кир
▁философ
▁нэрлэх
▁малгай
▁баясгалан
си
өөл
▁холбогд
▁нөхөрлөл
хтэй
бэ
▁эзэнтний
▁удаагаа
▁бэлгэ
▁орлого
▁үнд
чинд
▁банк
▁цо
лосон
▁судалгааг
▁шаарддаг
▁довтол
▁амьдралдаа
▁из
▁ээжээ
элийг
▁чадав
лам
аль
▁явуулдаг
эгддэг
зун
цэрэн
▁нэгнийг
гажээ
▁тэрбум
▁шу
▁итгэдэг
▁нэвтрүүл
▁худ
▁см
▁бон
▁сургаа
▁парламентын
▁эрмэлз
▁хөдөлгөөний
▁гаргаад
▁барьдаг
▁ханах
▁хэрэглэсэн
▁эхэнд
ваан
▁үлдэх
▁диплом
▁христийн
▁үхэл
▁батал
▁тосон
▁байгуулжээ
▁зочин
▁хүүхдийнхээ
элтийг
чдад
▁гараас
▁эж
▁хамааралтай
▁хиш
▁байгууллаг
▁ордонд
▁зориулан
▁дуур
▁тосгоны
▁энэтхэгийн
▁бодолтой
▁нээ
▁өргөгдсөний
▁султан
▁булчин
дэв
▁үзүүлдэг
▁ерөөсөө
вас
▁мух
▁хутагтын
▁үлдээсэн
▁малын
▁дуулга
▁ханг
нүүдийн
▁улсууд
▁аялгуу
▁ааш
иудын
▁зүр
▁боловсруул
▁явган
▁уриал
▁тайзу
▁авр
▁довтолг
▁занд
▁умард
чны
▁амттай
төл
▁өө
▁өсөж
▁баталсан
▁билүү
▁бослого
▁цэв
▁гэрэлт
дэгч
▁онош
▁эзлэх
▁залуучууд
▁хувийг
үрэн
▁яана
▁хаадын
▁явуулжээ
▁сургамж
▁анхаарлаа
▁үрж
хаг
гад
▁тэрг
▁тохирсон
▁гайхаж
▁хян
▁рүүгээ
▁барилга
▁спорт
▁цэргээ
▁хийжээ
▁эмэгтэйн
▁голд
▁хичнээн
мү
▁хэллээ
▁төхөөрөмж
▁худлаа
▁зохиолд
чу
шээ
▁харгалз
▁ургам
амбуу
▁эмгэг
▁дүүс
▁орхих
▁зүйлээр
▁үйлчлүүлэгч
▁олдсон
▁рүүпий
▁хатны
▁сүүний
▁хүрэлц
▁бүрдсэн
▁зүтгэл
▁тавиг
▁хуваагд
▁галд
ооно
▁зугт
▁байранд
▁сэтгэлгээ
▁хангалтгүй
▁хорг
▁улиралд
▁нүүрс
▁нөлөөтэй
▁рад
▁өгчих
өгд
▁баярлалаа
онх
▁эдгээрийг
сэг
▁дүгн
▁үср
▁лаборатор
эгтүн
▁өөрөөсөө
үйд
▁шуу
▁өөрчл
▁сургуул
▁цянь
▁шог
▁болгоод
▁үүсдэг
▁маг
▁сууц
▁зөвшөөрөл
огдоно
▁оновчтой
▁бичжээ
▁гаргахад
▁эсхүл
раад
хун
▁муутай
▁хохирол
▁уус
▁бичигт
▁босож
▁баз
▁туур
▁ойрхон
▁фу
▁асуух
▁тэмцээнд
▁хийхгүй
▁зээлийн
▁ойрад
▁модыг
▁ерөнхийлөгчийн
▁арь
▁дамжин
▁багаж
▁чадвал
▁дөрвөлжин
▁зохиож
охоор
▁зориуд
▁бэрт
өөгүй
▁мөнгөний
▁ороход
гой
▁тэнцвэр
лагддаг
▁охины
▁оролдсон
▁хийвэл
▁чичир
▁хатаг
▁дундаж
рч
амжтай
▁аятай
ддэг
бээс
ийм
▁таатай
▁зайтай
▁шам
уб
▁хэрүүл
▁цу
бо
▁орноо
▁залбир
▁басхүү
▁холбооны
▁хөдлөл
▁санаан
▁мэнь
▁зөрчсөн
▁зөвш
▁баталгаа
▁ник
чилсэн
чихгүй
▁тэвр
▁шинийн
▁бүгдээр
▁учиргүй
▁ле
▁даргын
▁сил
▁доктор
▁эруй
▁хөхүүл
▁хүчил
хээс
▁өглөг
▁эзэд
▁дарах
▁оноо
игч
▁тэнгэрээс
▁ширээн
▁гайхамшиг
▁зохимуй
мэг
▁ази
▁шийдэх
▁хэмээжээ
▁баав
▁физ
▁шалгах
▁талдаа
▁пал
▁хурааж
▁хүргэн
луулан
▁авчирсан
гир
юр
▁дагав
▁хагар
▁хүрэв
▁галт
оль
▁кур
▁барьц
▁инээд
▁юмгүй
хр
▁тэмээ
рий
▁ирээдүйн
▁багатай
▁номд
▁залж
▁харьж
▁хулг
▁хоолоо
▁сураг
▁үүсвэр
▁тавилан
чр
ойд
есс
▁нээгд
▁төвшин
▁ардчил
▁өнгөрч
▁баримтал
▁баяж
▁хямрал
▁байлгах
▁пүрэв
▁асуултууд
▁гахай
▁итали
▁кан
▁шүүс
▁ололт
▁амуй
▁чонын
еэ
▁бодлыг
▁өсөлт
▁хэмээгч
▁сүрэг
▁үзүүлнэ
▁бүрийг
▁тоог
▁армийн
▁хэрлэн
▁мэргэд
▁аллахад
▁хүсэх
▁дотогш
▁удахгүй
рай
▁хараал
▁гарахгүй
▁хавсруулж
▁дохио
▁эдний
▁марк
үүлэхийг
▁биднээс
▁уйлж
мид
тү
олтой
дсон
тик
▁зүгт
▁практик
▁ме
▁тийнхүү
▁нэгдүгээрт
▁бусын
▁ихэнхдээ
му
▁дус
▁гарыг
▁мөрдөх
сал
гэдэг
▁цөл
▁мэдрэмжтэй
▁мөнгөө
▁өвч
▁эмчл
▁цорын
▁хош
▁баа
▁олно
▁нутгийг
▁түрх
▁зардал
▁суулаа
▁тамирыг
уурын
▁пүн
▁болго
▁хичээнгүй
▁гашуун
▁тэгэх
▁зургийн
▁хараат
▁бодлог
▁жанч
▁сүрхий
төмөр
▁жо
▁охиноо
▁бичдэг
▁хаяг
▁тэсвэр
▁үүргээ
орх
▁авахаар
▁хайрласан
▁хүл
▁ухас
▁өдрийг
▁мэргэжилтэй
▁саг
▁нөх
▁илгээсэн
олсон
дай
сэнгүй
▁эвэр
▁театр
▁өөрчлөлтийг
▁бороо
▁чинээ
▁цэгц
тийг
▁даав
▁зохино
▁дургүйц
▁эмийг
▁цан
▁орг
▁колони
▁мая
▁найрагч
▁хом
лөгд
▁бой
▁эзэмшил
▁ойлгохгүй
ралт
луулна
▁тоон
▁буш
▁ажилгүй
▁хэмээсэн
▁харав
▁хамба
▁хөгжилтэй
▁дээшээ
шсан
▁агнуурын
▁гончиг
▁үүгээр
▁боль
▁зорьж
▁залх
▁цусан
▁чадаж
▁хүртээмж
▁солонг
▁байгуулав
▁гэдэсний
▁хорооны
олдог
▁хүнээ
▁онгод
▁моск
▁бүжгийн
▁өнөөх
▁сп
▁байлг
▁гэл
▁дахины
▁барилгын
▁зонх
▁пап
▁юунаас
▁хэмжээтэй
▁дорой
▁наадам
▁учраа
вийн
▁хулан
▁өтгөн
▁ханы
▁түвд
ья
▁ойлголц
▁идэвх
▁суб
вэр
▁өлс
▁тунгалаг
▁эмнэлэг
▁шүүг
▁толгойд
▁жор
▁эрхлэн
үүдтэй
▁суурийг
▁цэдэн
▁үүсэх
▁дарь
▁эдгээрээс
түн
▁талбайд
логд
▁нээсэн
▁дуурай
эний
▁хотууд
▁гүйж
▁асуул
хэж
▁уншдаг
▁тохиолдсон
сдийг
▁зээ
▁залгамжлагч
▁хэрэгжүүлж
▁гээч
▁унтаж
▁зүйлсийн
гтун
▁эмзэг
ци
лаараа
луул
▁дараалан
▁нэгдмэл
▁програм
▁им
▁доромж
эсээр
▁номхон
▁тогтоомж
чихлаа
тнуудын
▁үүн
▁ажиллана
шилж
▁хүснэ
▁тулг
▁кей
▁эш
гтүн
▁боловсронгуй
▁адилаар
өнд
▁боловсролтой
тарч
▁томьё
▁хавд
▁цөмөөрөө
▁чөтгөр
▁харгис
ард
▁бүтэлгүй
▁рашаан
олон
▁эрхлэх
▁тулалдаан
▁тасал
▁зус
▁социалист
▁дин
ук
▁өчигдөр
▁барсан
▁ядах
▁хэсэгчлэн
▁ингэхдээ
▁нэрв
▁дас
алыг
▁магадлалтай
▁бүрдүүлэх
▁шатны
▁мань
▁есүс
▁солигд
▁гин
▁шавар
▁зэл
▁хариулах
▁хөөж
▁суугаа
уз
▁заавар
▁албыг
▁саар
▁ширээнд
иулж
архан
▁дуулсан
▁өргөсөн
мэд
▁авлигын
▁инү
▁уулзалт
▁ордон
▁үндсийг
▁хунтайж
өгдсөн
▁төлөвш
▁есү
▁магистр
▁элд
▁бэлгэд
▁шинэчлэл
▁юмс
▁сонгуульд
▁хамаа
▁үзэгчид
лахгүй
▁тариачид
▁эвгүй
▁төгсөөд
▁харахгүй
лагд
өлтийн
▁си
▁вашингт
▁үйлдлийг
▁шилжсэн
▁өндөг
▁ингэхэд
▁батлагдав
ологийн
▁өнөөдрийн
үгэй
▁хамаарна
лүүд
агджээ
▁хөрв
▁гэнэн
▁тэмдэглэх
▁татсан
▁сувилагч
▁олноор
▁сэнг
амс
▁хэрэгжилт
▁язгуурын
▁хязгааргүй
▁дайныг
▁харлаа
▁оё
▁урьж
▁явсаар
▁алдаршсан
снээ
▁сайдын
▁тоглолтын
▁суралцагч
▁га
▁зүйлүүд
▁үргэлжилсэн
▁авд
гаасаа
▁саванд
▁нээх
▁өсч
▁тусална
ост
▁агн
▁сартай
▁атаарх
▁зарж
раар
▁менежер
▁булан
▁хараахан
▁эмчийн
▁ярилцах
огтун
огддог
чихээд
дөггүй
ест
▁зузаан
▁хулгана
▁тэвчээр
▁ялган
▁сүс
▁нээлт
▁эрхт
▁үлджээ
▁татан
олц
лет
▁урьдын
элдэж
▁эдгэр
▁сүүдэрт
▁нөөцийн
▁илдэн
▁цэл
▁архинд
▁гадны
▁холбож
▁бясал
▁аваагүй
лэ
▁үнэлэх
▁аврал
▁байгууллагад
▁санж
▁үлдэж
▁жилүүдэд
жамц
▁явахдаа
▁унтах
▁аллахаас
▁тойм
▁тоглодог
▁хонг
▁эхээр
▁төөр
гоос
▁ингэхлээр
иний
▁мэдэрдэг
▁хориглосон
▁илэр
▁заяаг
аандаа
▁тулалдаанд
чихсон
▁бодон
▁хөшөө
▁нүг
▁хээр
▁цаашдаа
екс
▁үзлээ
▁иб
галан
▁үүнийгээ
▁ассир
▁цуглаан
▁ширт
▁хүргэдэг
▁нин
лалаа
▁цэвэрлээд
рөл
▁гов
моор
▁түй
▁өргөмжилжээ
▁мэх
уйц
▁юмны
▁тавиад
▁ярилцаж
▁уралд
лалтын
▁явжээ
▁боор
▁орхиж
▁гом
▁агаарын
▁туршилт
▁автом
лүү
▁бүхнээ
▁зарл
▁ажиглаж
▁хутуг
▁хэвш
▁хүрэл
▁бичвэр
▁хаяж
▁танхимд
▁үргэлжил
▁бардам
▁саруул
▁парламент
▁мэдээд
үүлэлт
▁сонгож
▁тогтоодог
▁нүгэлт
раг
▁илд
атын
▁киног
▁хавир
▁чиглэлийн
▁санхүү
▁зөвшөөрөх
▁байрш
▁цэд
▁дэ
▁тайл
▁өргөх
▁механизм
▁дөрв
▁дэглэм
жилтийн
▁сөх
бын
▁тааралд
▁хүндрэл
▁са
▁эргэлт
▁гэрч
▁вай
▁найдвар
▁сэтгэж
дод
▁номхотг
▁тагн
▁хориглоно
▁даван
▁нулим
▁дэр
амын
▁тарваганы
чимэг
▁хугарах
▁сүүлээр
тойгоо
▁хорь
▁байрлал
▁нэгэнд
▁бодисын
▁шалгаж
руу
▁ноцтой
▁ээс
▁жавхлан
▁хайрладаг
тгэл
▁асуув
▁хамтаар
лээгүй
▁ярина
иагийн
урын
▁хэмээмүй
▁тэл
та
▁угаасаа
▁ич
▁илж
▁хям
▁хандлагатай
▁мэргид
▁парис
▁идсэн
▁нор
ддаг
▁тэнгисийн
лагаа
▁сүв
эрсэн
▁мэдэлд
▁шатанд
▁жагсаалт
▁түрээс
▁огц
▁ургуул
▁бүтээгдэхүүний
▁хэсгээс
▁байлгажээ
▁саахав
▁дүрд
▁тулалд
▁хэлэлцэх
▁хувьсгалын
▁ком
▁бэлгүтэй
▁сурган
▁кинонд
▁аялал
▁хатаана
үд
иль
▁мэргэжилтэн
тоо
▁өгвөл
▁хамар
▁гайгүй
▁чингисийн
▁тайзан
▁оршдог
▁авиа
гүүдийн
▁байнам
▁хэлэлцээр
▁технологийн
▁мэдэгч
▁сүлдний
▁харилцах
▁шүтэх
▁хүргэсэн
▁хб
▁ургах
▁урлагт
▁үлдэг
▁хятадад
▁эрдэнийн
▁хандан
▁бууны
▁айлтгаруун
▁хүрэхгүй
▁нугал
▁нутагтаа
▁хүрнэ
▁италийн
▁олоод
▁мэргэж
фу
▁үүдэн
▁боломжит
▁хотоос
исын
▁тулгарч
цэцэг
▁тосыг
лх
▁өвчн
тныг
▁буусан
▁өвөө
▁эрдэмт
▁тодорхойгүй
▁нуугд
▁айфу
лэлтийн
▁дээдийн
▁хөндлөн
танд
▁наполеон
▁зүйр
▁хянаж
рээ
▁сэргэлэн
▁араб
▁гөл
▁байснаас
▁банди
▁өрөөний
▁нэмэгдэж
▁маягаар
▁зүгийн
▁галдан
▁тохиролц
▁дүүгээ
ийнхээ
▁татгалзсан
▁барс
▁зогсоож
▁арх
▁хүлэг
▁хөгжлийг
эхүйн
▁стр
▁мастер
▁сэргээ
▁нүү
▁сүүн
▁тэжээлийн
▁насыг
▁гараараа
▁хавср
▁ширээний
▁грекийн
▁эрд
ндаа
▁нийлж
▁гуйж
▁дурсгал
▁шо
дуу
▁хэнгэрэг
▁хэмээхүйд
тэнд
▁суулга
▁замдаа
▁алдаад
▁санаагаа
▁хамаатай
▁нүдийг
▁сургуулиуд
▁айзамд
▁аср
▁улсаа
▁шаардлаг
▁хэлтэс
▁түнш
▁оролцоог
▁заах
тэр
▁олдох
▁туяа
▁хүмүүсээс
▁бөхийн
▁тоосон
▁шалтгаанаар
▁тэй
▁алсын
▁яадаг
▁орчлон
хангай
▁тэгэхлээр
▁олиг
▁дүрийг
▁хавсралт
▁халиунаа
▁нөлөөлсөн
▁нарийв
▁оос
▁харилцаанд
тана
эжээ
ахуйд
лүүлсэн
▁овогтой
дана
▁хүүхдүүдийг
▁хамаарч
▁орхин
▁сүүлдээ
▁гарахад
▁тарьж
эрэн
▁байгаагаар
▁хүлээсэн
▁болгонд
▁оролцдог
▁мэдээгүй
▁санваар
▁хөдл
▁сэдв
▁зантай
▁чиглэсэн
▁хорв
▁тусдаа
▁хөдөлгөөнийг
▁анаг
▁бичгээр
▁зайлсхий
▁бэлгэтэй
▁илэрдэг
▁философийн
▁очив
▁огтхон
▁нимгэн
баа
▁утсаар
▁тусламжтайгаар
▁хэвл
▁даян
▁ох
▁амнаас
▁гаднаас
▁заадаг
▁нөхрийн
эгчдийн
▁инженер
▁сандал
▁түү
ош
▁тусыг
▁ачаа
▁иргэнд
▁хоолонд
▁алав
алгаа
▁уламжлал
▁шашныг
▁бодитой
▁дороо
▁өгөхөд
▁гийг
▁гомбо
▁сурагчдад
▁баас
▁ялгавар
эгдэх
▁түүхий
▁авалт
▁байгал
▁нотол
▁сэтгэлээсээ
▁эрүү
▁зорьсон
▁эксп
▁юү
▁хэрэвзээ
▁юүгээн
▁ажилчид
▁тариалан
▁чөлөөг
▁таблиу
▁ак
▁дурын
ээтэй
▁яахан
авал
▁гадаадад
автар
▁ургийн
пер
длоо
▁хах
гуудын
▁санагдсан
▁оюутнууд
эрийн
▁команд
хэй
▁хамгаалагч
▁төлөвлөлт
лалт
▁онгон
▁бэлчээр
▁удмын
▁юугаа
сайхан
▁асуултад
▁гомбосүрэн
оогоор
▁амуу
▁наадамд
▁ундаа
алдаа
▁вант
▁өмгөөлөгч
▁шаард
дав
▁бөртэ
▁мэр
▁раш
▁даалгав
▁тодорхойлно
▁зааг
уулахын
▁агуулсан
▁өнгөрөх
▁багшаар
▁түшиг
▁бн
▁иргэдийг
▁үнээний
▁шилжин
▁базар
▁онгой
чээр
▁үйлчилгээг
▁хавь
▁ажиллагаагаа
▁нэхэж
▁тоног
▁шахаж
галаа
▁жүж
▁тойн
▁дүрм
лиг
▁олдохгүй
▁процесс
▁хамгаалдаг
▁нууж
лөгч
гээдэг
▁даан
▁талууд
▁илэрхийл
▁боомт
▁мөнгөөр
▁уншсан
▁бүрх
▁гэхээс
▁хичээдэг
▁хувиараа
ту
▁хийв
▁ген
▁цуц
▁тайвшир
▁хүрчээ
▁худаг
▁ялсан
▁утгаараа
▁эргүүлж
өч
▁засаглал
▁арал
▁хашхир
▁дөхөм
▁үрс
▁захиргаа
▁лин
▁анхаарлыг
▁хөрөг
▁хэрэгцээг
▁хангамж
амшиг
хын
▁хөөцөлд
▁ион
▁хэнтэй
▁ардчилал
үүнд
▁амб
▁инээдэм
▁ы
▁ел
▁уялд
▁саж
▁лгбти
▁хангаж
▁биетэй
▁хэлжээ
▁манайх
дээд
▁дэвшил
▁гүнд
▁хэрэм
▁хаалт
ерн
▁жигд
▁тач
▁харьцаа
▁эмх
▁эхэд
▁цагтаа
▁удирдан
▁конс
аши
▁үргэлжл
▁сэ
▁шувууны
▁цуглуулж
▁математик
▁не
▁эрэл
▁илтгэл
▁иргэнш
▁цуглар
▁ойрын
▁нах
▁шүүхэд
▁дусал
▁гей
▁нөхд
▁дөх
▁шаардаж
▁айсан
▁заав
▁батлагдсан
▁хэвшлийн
▁өглөөний
▁өгүүлэл
▁тиймээ
▁сургалтыг
▁хүсвэл
▁ноос
▁хүртэлх
▁нөхр
▁борохул
▁улай
өлдөг
▁тэрчлэн
▁өрсөлдөөн
▁алан
▁хүүг
▁урамдлын
▁пл
▁компан
▁шонхор
▁бөөл
▁илрэл
▁хөтөл
▁хүмүүжлийн
▁үүдэлтэй
▁гэгээ
▁дөө
▁дутаг
▁бизнесийн
▁де
▁явагддаг
▁ирэн
▁таньдаг
▁эзэлдэг
▁хэлбэрт
▁мужид
▁бурхад
▁нутгаа
▁сод
▁сарн
▁дуугаа
▁сонгуул
▁ихийг
сөнд
▁нягтлан
▁хөндлөнгөөс
▁тэмдэглэж
▁зэр
▁хөгжих
▁маж
▁очиход
▁ангидаа
▁шалтгаа
▁болохын
▁бурханд
▁гээ
▁эмээл
▁билэгдэл
▁мөс
▁ажлаасаа
адай
▁дүүгийн
мэгц
▁баригдсан
▁системийг
истууд
▁амьсгалын
▁сэв
▁гул
иск
▁өгэдэй
▁тайлангийн
отой
▁эе
▁эрдэнэт
▁агаад
▁цагаар
члон
▁дураараа
▁халуу
▁мэдтүгэй
▁захиал
бер
▁орчуулга
▁тайлбарласан
▁цэрэнд
▁төрд
▁гя
▁прот
▁хэрэгцээтэй
▁тахиж
▁зарцуулах
▁зарлигийг
▁мат
▁зохиогч
▁хэрэгжүүлэхэд
▁офицер
▁хандсан
▁галзуу
▁тулаан
▁сөгд
▁арьсыг
▁удир
▁болчихдог
штай
хир
▁тухайгаа
▁ууд
▁гарц
▁байхав
▁коммун
▁ахул
галж
▁хөш
лахын
▁хайх
эмүй
▁бүхэлд
▁туулай
▁худалд
▁мөрийг
бад
▁тусгаж
▁шийдвэрийг
▁иддэг
▁удаад
▁тутмын
▁тангараг
▁хувцсаа
▁гутгаар
▁хувил
▁жал
▁гагцаар
▁авлага
▁чил
▁төрдөг
▁хүүхд
▁нүүж
▁сонсдог
▁эдлэх
▁хожуу
агш
▁шалтаг
▁адаг
▁зөвшөөрч
▁багтана
▁зуураа
▁цул
наасаа
▁улсаас
▁үйлдэг
▁нэгээс
▁харагд
иор
▁маргал
▁гишүүдийн
иуд
▁уурлаж
▁дуудсан
▁нээрээ
▁мөргөлийн
▁буху
▁тогоон
▁прус
▁каль
▁гитлер
▁дагалдан
өөдөг
▁үүл
▁стан
хнаа
▁чамтай
▁хорс
▁эндүүр
осны
▁нэвт
▁проц
▁оройт
▁феод
гагч
▁хэц
▁өлзийт
▁хариуцлагыг
▁больсон
▁тархсан
▁бусаар
▁нөмөр
▁ангиж
▁нуг
▁тайлж
▁настайдаа
▁суут
▁жанжины
▁нэвтрүүлэгт
▁нөлөөг
ээгээд
▁таалагд
▁тайв
▁ирэхгүй
ми
алаа
▁мэдэхэд
▁хөрөнгийг
▁чэрби
▁өрөөн
▁мухар
▁дарам
▁тоглосон
энгийн
үйн
▁хонгор
▁бодолд
▁чаджээ
▁хэмээжүхүй
▁халь
▁дахиж
▁санасан
▁чун
▁ардчиллын
▁цөсийг
▁амаа
▁аудитын
▁төсөөлөл
▁цэнхэр
▁гөрөөс
▁урлагийг
▁ээл
▁бит
▁зүүл
гүйн
ьтай
баатарын
▁зэс
▁ханыг
▁бугын
▁хорих
▁төгсөх
▁цэцэн
▁танаас
▁дутмаг
▁бэхжүүлэх
▁төслийг
▁довтолж
▁хөнөөл
▁эргэлзэж
▁африкийн
▁тэдгээрийг
▁уугуул
▁тайвш
▁буудал
▁дотуур
▁зүрхийг
▁шаа
▁хөвүүд
▁гомдоо
▁уудаг
▁унах
элнэ
▁болгоныг
▁тоогоор
▁залг
тгана
▁журмыг
▁сонирхлын
▁жигүүр
▁аминдэм
▁хүртэж
▁тээвэр
▁төлөвлөж
▁өргөтг
▁гутал
орхон
▁хуурын
▁харшил
▁хичээлийг
▁явагдаж
▁инээл
▁хураа
мээ
лган
иур
▁радио
▁төрөөс
▁тиймийн
иулах
▁цохиж
ваа
▁өгөөгүй
енд
▁аригбөх
уулын
▁багшаа
илл
▁ирэхээр
▁гараар
▁олныг
▁батын
▁цоч
▁багаар
▁оруулалтын
▁өсгөсөн
▁хөрсөнд
▁сургуулиас
▁гашууд
▁сой
гөв
▁бодлоор
▁боолын
чихвал
▁дайсн
▁мэдлэгийг
▁юмуу
▁туршлагатай
▁өвгөд
нан
▁илүүд
хэр
▁багц
▁хатгаж
▁ууган
▁янь
▁өдрөөс
▁хариуд
▁нараа
▁бурхныг
▁вар
▁тансаг
▁буриад
▁түгшүүр
▁нэгдэл
▁францад
▁өмсөх
▁ашгийг
▁хүчирхий
▁хоригдл
огчдын
▁эрхлэгч
▁учирч
▁дад
▁үйлчил
▁тэнгэрийг
▁маягийн
гүүн
▁хязгаарлагдмал
лагаас
▁нуурын
▁уялдаа
▁тусмаа
▁засаглалын
▁дуудах
▁пер
▁хүүтэй
▁аялг
▁хичээнэ
▁хоорондох
▁компаниуд
▁бун
▁ороо
▁хавтгай
гүүдэд
▁дугтуй
▁фин
▁шийдэж
▁буулгав
айж
▁нэв
▁дундаа
▁хариулав
▁торго
▁магистрын
гэнэ
▁хэлэхгүй
▁хашаа
өхөөр
▁хөтөлбөрийн
▁сэтгэгдэл
▁хана
▁буцаад
▁нуугдаж
эгсэд
▁газраар
▁банкны
нүүдийг
▁саарал
аасны
▁алб
▁дээдсийн
▁бүдүүлэг
▁хэлбэрийг
▁үргэлжлүүлэн
▁жас
▁жич
▁хөхөө
▁дамдин
▁ванг
ацгаа
▁тогтолцооны
▁бараалх
▁гавьяа
▁өмөөр
▁ходоодны
▁сүсэглэг
▁эрхэлж
▁одсонд
▁одоохондоо
▁цэнэг
▁байцаагч
▁зүтгэсэн
▁горх
▁театрт
▁хөгжсөн
▁сэг
▁итгэмж
▁нир
▁цамц
чихдаг
▁гомб
чар
▁гараагүй
▁биб
▁үнэмлэх
▁тулуй
▁шүтээ
▁тэргүү
▁чангаар
▁гял
▁орчуул
▁нийлүүлэн
▁зэрэгц
снөөс
▁шаш
▁мэн
▁биологийн
▁чийрэг
▁сэтгүүлч
▁мунхаг
▁бог
▁салхинд
▁номоо
▁ирвэй
▁доошгүй
▁хураасан
▁дутагдалтай
▁хоос
▁байдлаа
▁цэнэ
▁гаа
▁арвин
▁зэвсгийн
▁солих
▁үүдэнд
▁зүтгэж
▁худалдаачид
▁овоонд
▁амжилтгүй
▁дүрв
▁тулгарсан
▁илэрхийлсэн
▁өнгөөр
▁тугал
▁нөхдийн
▁нов
▁бодохгүй
▁тохиол
▁хийсвэр
▁холбоог
▁үйлчилж
▁жиж
▁тооцох
▁кин
▁ярилцана
тарсан
▁зохим
▁ээлж
▁тахи
оогоод
▁гариг
▁хэрэгжиж
▁зураач
▁өнг
▁өвчтөний
лор
нын
▁зогссон
▁рах
▁мартаж
▁гарцаагүй
▁хамгаалахын
▁дураар
▁аажимдаа
лөсөн
▁өөрчлөгдсөн
▁байсны
▁хүүхэдтэйгээ
▁македоны
▁хус
▁идэвхи
▁шалтгаал
ээнээс
▁даралт
вад
▁сим
▁тоонд
▁түвшний
▁байгууламж
▁хатгадаг
▁болбол
▁уулзах
▁хязгаарлалт
▁огцом
▁удаагүй
▁шүтэж
▁найдвартай
▁гэг
гаарай
▁аргачлал
▁нүдтэй
▁нэрлэнэ
▁шархыг
▁хааг
▁авиаг
▁эхийг
▁дүрмийг
▁алим
▁ших
▁номун
▁зуунаас
▁боловсор
▁сорилт
▁заал
▁айраг
▁бичил
▁цоор
▁зэрэгтэй
үдэй
▁үеэл
▁лүү
ооч
▁бөөрөнхий
▁бүрдэнэ
▁айлтгаад
▁овоог
▁хүчинд
▁тэрс
▁ерийн
оч
гдсан
▁туслалцаа
▁есүхэй
▁устгах
▁нэмэх
▁ялж
▁сэрэмж
лавал
нээрээ
▁алсан
уудаар
олгүй
▁хорчин
▁компанит
▁сайжир
▁төрүүлэх
▁монголоор
▁эхийнхээ
▁байрлалд
▁аллахыг
▁чармайлт
▁хураангуй
▁бичигдсэн
эрг
▁хийгдсэн
шлыг
▁язгууртнууд
▁давсан
еф
▁ухаанаар
▁цэргүүдийн
▁малт
▁ташуур
▁гаргуул
▁явдалд
▁аран
рүүлж
▁жур
▁өмсөж
▁заслыг
▁хүлц
▁төвөгтэй
▁гуйв
▁баярлах
▁хариуцлагын
▁магадлал
▁байлдаж
▁хуваан
▁санагдав
▁зогсоод
▁яриг
▁эелдэг
▁эрдэс
▁тайлаг
▁аваач
▁бүрээр
▁мэдээг
▁спортын
▁иж
▁зөвлөмжийг
▁арч
▁багахан
▁эрхэлдэг
▁ноц
▁сүсэгтэн
▁гаран
хүн
▁үхлийн
▁тэртээ
▁эсгий
▁халдварт
лаагүй
▁уншигч
▁өгсү
▁норов
▁нийгмийг
▁цэвэрлэж
▁хэмнэл
ао
агчин
▁тусгасан
рүү
эхүүн
▁дагуулан
▁це
▁шүр
▁асуудлын
▁самбар
▁өгүүлж
ентийн
▁багшийг
сдыг
кер
ийгийн
▁түшмэдийг
▁үйлдвэрлэл
▁үер
▁хх
▁болсонд
▁рүүп
лөл
▁төвийг
▁ниш
▁хавт
▁өргөдөг
▁магн
▁хөс
чит
дол
лагийн
▁төлөвлөгөөг
хтай
▁богин
▁аманд
▁бүри
▁турхаг
▁гоц
магц
▁хуралдаан
▁хаалганы
▁инээж
▁аварч
▁компьютер
▁ойлголтыг
▁бүтцийг
▁хөөн
▁дө
▁хүүхдүүдэд
▁мөрөөдөл
▁гэргий
исан
▁чөм
▁тавилаа
▁татар
арчээ
▁амжаагүй
▁хэбэй
▁албат
▁хуурамч
▁бүрмөсөн
цгийн
▁нүцгэн
▁мад
▁огторгуй
▁зогсоно
▁нэл
▁номлол
▁жол
▁тийрэн
▁бүхнээс
▁өөрсдийнхөө
▁шум
▁юй
▁ухаантан
▁холбогдсон
▁маркс
▁дэмжин
▁сахиж
▁бүхүйд
▁цолтой
▁зүрхэнд
▁одлоо
▁хагал
▁шанал
▁ялз
▁ядарсан
▁зүд
▁танихгүй
▁бот
▁дамдинсүрэн
ааль
охын
▁солонгос
▁хонин
▁бадар
▁янзаар
▁хаалг
▁зарчмыг
▁үлдэнэ
▁салж
▁оролцоо
▁суулгажээ
▁шүтдэг
сөд
▁дуудлага
▁уут
▁сайжруулж
лөөр
▁дэлгэрсэн
▁дүл
▁ахын
▁социал
▁төлөвлөсөн
▁хаал
жам
▁ухаж
▁гаргав
▁бадган
▁явуулна
▁зүйлээс
чихаж
юань
▁баталж
▁тайланд
▁испанийн
▁гуя
цог
▁бүтээлүүд
▁эргэх
илоо
▁төрөлх
▁алдарш
▁гудамжинд
▁аавынхаа
▁өөс
▁илүүтэй
▁ажиглалт
▁үрээ
▁жилээ
▁сүйр
▁ойрадын
▁анж
▁хэлц
▁илэрнэ
илгыг
▁жиб
▁боо
▁зардаг
▁генрих
элтэн
▁торг
▁уушиг
▁тэргүүлэгч
▁зэх
▁дэлб
▁заяасан
▁улсуудын
▁чэн
▁боть
▁тэмцлийн
▁грекүүд
▁хэлхээ
▁сэргээх
▁олгоно
▁хуран
▁хутга
▁машины
▁хамарсан
▁дүрслэх
▁мэдэг
▁түв
▁ной
▁өвгө
▁мушг
▁оногд
ээгч
▁дээшлүүлэх
▁жун
чх
жуулж
▁өргөд
▁зохицуул
▁жүр
▁явцыг
рөн
ьсон
▁цэгт
▁үзэв
▁хайрын
ианд
жүүлж
▁агшин
▁тэрэгний
▁омог
▁ургасан
агн
▁хянан
▁хүрэм
▁бандида
▁чадалгүй
раас
▁ороогүй
▁соёлыг
▁сэтгэлгээний
үүт
▁үнэрт
▁сэхээ
▁бин
▁ажилтнууд
▁амралт
▁маалдий
орл
▁сайныг
▁гэлэн
▁үүсгэн
▁чаг
▁британийн
са
▁мэдрэх
нох
▁дүй
▁тодорхойлолт
▁аяндаа
▁хөтөлж
▁хариулж
▁гэмтсэн
▁загалмай
▁насаараа
▁хээ
▁сэргээн
▁сэрээ
▁оролдож
▁хориотой
лөгдсөн
▁боловсролыг
гавал
▁манайхан
▁салаа
▁хүртлээ
▁данзан
▁асуудлуудыг
▁тайлах
▁хоолойгоо
зын
лоор
▁үзэм
▁өнгөрчээ
▁судрын
▁зэрэгцэн
▁аминд
▁гүйцэтгэж
жуур
▁хямд
▁бухим
▁хүндэтгэн
▁хичээх
етр
рүүл
өсөн
▁мэрг
цаа
▁тэмдэглээ
▁хүндэтгэл
▁өтөг
гэрэл
ектив
▁гайхшир
▁шинг
▁буув
▁тарих
үүц
▁бололцоо
▁араншин
▁малчин
▁агуулдаг
▁хандлагыг
вээ
▁холбоотойгоор
▁дая
иудад
▁орчныг
▁угтаж
▁шилэн
▁төлөөлөгчид
▁цал
▁эгэл
▁сэлэнгэ
▁байдл
▁интернет
▁булган
▁нэгдлийн
▁тарвага
▁тогтоон
▁мил
▁ку
▁шилжих
▁айсуй
вд
▁өөрсд
▁шуугиан
▁азар
▁мөнхийн
▁аваачиж
▁туракина
▁мөртлөө
▁урамшуул
▁ванд
жуулах
▁таамаглал
▁залгамжил
▁хурууны
▁каб
▁бээж
▁үнэний
▁буурсан
ээч
▁эгн
▁цолт
▁олгож
▁тосгонд
▁санг
▁шиж
▁хүмүүний
▁нээл
▁бөхчүүд
▁хүргэв
▁эзэлсэн
▁жирэм
▁хуваадаг
▁төрнө
▁ант
▁заль
▁цөх
▁дорг
▁мэдрэлийн
тнээс
ец
▁уулгадаг
▁тасар
▁нисэх
длийн
лай
▁хэлэлцүүлэг
▁дөр
▁тоглоо
▁сэргийлж
▁хүлээнэ
огсод
▁бэйсийн
▁хийхээ
▁хадаг
▁түмэд
▁цэцэгдэлгэр
▁хийхдээ
рүүн
▁ялагдсан
▁арьсны
▁салшгүй
▁нэвтрүүлгийн
▁гурв
жир
▁онгоцны
▁бен
лэм
▁чиглүүлж
▁зургаадугаар
▁эцгийнхээ
▁нотлох
▁чигээрээ
▁хамгаалсан
▁хүсээгүй
▁шөрмөс
▁амины
ка
▁ядар
▁эрдэн
▁мэдэр
▁дагасан
▁үзэгдэнэ
▁тулгуурлан
▁ойш
▁өөрчилсөн
▁тэмдэглэнэ
▁төөнөх
▁мэдүүл
▁хамгаалахад
▁үзэсгэлэн
рам
▁тогтооно
шаа
▁цэвээн
▁зүүдэг
▁хошой
▁бхоолаа
▁хэрэгжих
▁хурай
▁хүндэлж
чихжээ
▁гүү
▁хөтөлбөрийг
▁чадварлаг
▁нөм
▁судлал
нэж
▁байгаагийн
▁арт
лэгдэх
▁унтр
▁эхээс
▁охиныг
▁зориу
эндорж
▁капитал
▁дац
▁цух
▁ажилчдын
▁хубилайн
▁ойролцоогоор
▁анхдагч
ологи
▁улирлын
▁анагаахын
▁буцалгаж
▁удирдсан
▁чадамж
▁хувраг
▁боож
▁пол
▁хутг
▁бир
▁чулууг
▁үнсийг
▁тамх
▁дагаар
▁исгэлэн
ахай
▁хүндийг
▁хоёроос
▁амны
▁пастор
▁нангиад
гөний
▁бичээс
▁илгээжүхүй
▁өдрүүдэд
▁умар
лээрээ
▁одох
▁завсрын
▁мас
▁суртахууны
▁очлоо
▁хээрийн
▁баригчид
жингийн
▁хойт
▁таарсан
агс
▁шинжил
▁бүтээлээ
▁дуулдаг
▁мөлтөр
эгн
▁бүрэлдэхүүнд
▁кеннеди
▁жолоод
▁янзтай
арх
луулдаг
▁каннаа
▁урь
▁ашигласан
▁алин
▁орхи
▁зоог
▁танилцсан
▁эргүүлэн
гуур
▁минү
▁хүнгүй
▁статист
▁зогсох
▁болсноос
▁бараан
▁тогтно
▁судлын
▁технологи
▁шагжам
▁улбар
илаа
▁захидал
▁заяат
▁хамтарч
илын
▁прокур
▁нян
▁наснаас
▁мут
▁замбараагүй
▁өршөөж
▁хийлээ
▁нөл
▁ислам
охдоо
▁хүүхдүүдээ
игддаг
▁дутааж
▁уншаад
▁өнөөд
▁бусадтай
бү
▁кат
▁очин
▁ухагдахуун
ирын
▁гэрээний
▁булг
▁хувцастай
▁хувиар
▁байгаарай
▁бөс
▁агнуур
▁могойн
▁орчих
▁зөг
ууллаа
▁мөсөн
▁тохиолдох
▁орхигд
чуудад
▁өмн
сдын
▁үзжээ
▁төлөөх
▁бүгдэд
▁цаашаа
▁дууссаны
▁намтар
▁жилээр
лэгдэн
ский
▁хөгшр
▁жак
▁алтай
▁шархадсан
гөөд
▁ит
▁багадаа
▁төрч
▁явахгүй
▁тээж
▁үйлдэж
▁өргөө
▁нүүдэлчин
айд
▁атг
▁вавилон
шилд
▁монголчуудыг
▁өвчтөнийг
▁гэрээсээ
▁аюуш
▁албадан
▁хамтр
▁байгтун
гээгүй
цгоо
▁чал
▁хэмн
▁зарцуул
иагүй
▁авай
далгүй
▁ёслолын
▁бэлгэдэл
▁морийг
▁батжаргал
▁дүүргийн
▁цамнадаг
▁гарал
▁агуулж
▁гэлц
▁захи
▁зурхай
▁олжээ
▁алагдсан
лэлтэй
▁намжил
▁танхимын
▁хатаах
▁багтдаг
▁тэвчээртэй
гион
▁уншина
▁идэв
▁хялбархан
хин
▁болгоход
▁буянт
хана
▁хязгаарлах
▁шийдэмгий
лөөд
агар
▁хортой
▁конгр
▁тушаалыг
▁барагд
▁гамб
▁кам
хний
▁байхаа
▁микр
▁байлгаж
▁мун
▁хилийн
▁жнь
▁байснаар
▁цүн
үх
▁үзлэг
рөг
унд
▁онон
▁өгөөч
▁эцэстээ
▁тэргүүлэх
▁хааж
▁либерал
▁явахаар
▁гл
▁гүвдрүү
▁босоод
▁эк
▁хэнээс
▁дов
манд
▁өнгөрөв
▁гүйцэтгэсэн
уни
▁өвдөж
▁буцах
▁амаргүй
▁увс
эгчийн
▁үнэлдэг
длаа
▁үүснэ
иран
▁хэрг
▁үзэхээр
▁өт
▁сацуу
▁нарий
▁тэдэн
▁хэлэнд
аалд
▁карт
гахад
▁кофе
▁хоор
▁хувьсал
▁захирч
▁дурдах
▁ххк
▁түмэнд
хой
▁эмхэтг
▁миш
▁дууддаг
▁комис
▁сэтэр
▁институ
цэр
▁гараг
▁эрчүүд
▁мундаг
▁золиос
▁суудалд
индаа
▁төлөвлөгөөтэй
▁өмссөн
▁шунал
▁хундаг
▁мартсан
▁гомбож
▁бөөг
жсан
▁ажилчин
▁тодруулах
дож
▁хэвлэгдсэн
өөрэй
▁персийн
▁че
▁адис
▁сонгууль
▁ээждээ
▁маа
▁шийтгэх
▁дайду
хээр
▁гишг
длог
илт
▁урагшаа
▁бодисыг
▁цуур
▁цэрэндорж
▁болгоомжил
▁гарибал
▁клин
▁хийс
▁цэргүүдийг
буу
▁энэн
▁сайхныг
шилт
▁бичээд
▁түүхчид
▁үйлчлэх
▁доошоо
▁орвол
▁хөгжин
▁давамгай
▁нэгдэн
▁уулзсан
▁зогсохгүй
▁оруулалт
▁мох
▁лог
▁энэрэл
иудыг
▁амарч
▁гарахыг
▁халжээ
▁хөрсийг
▁дүрсэлсэн
▁уушги
▁махны
▁хоолойг
мог
▁тогтож
▁уурхай
▁татаад
▁буцал
гаана
▁хэлийг
▁хэрэй
▁хөдөлгөөнтэй
▁буйгаа
▁еврей
▁доромжил
ири
▁гэсгээл
орсон
▁рыцар
имал
▁яриан
▁аймшигт
▁хохирогч
ийнх
▁журмаар
▁хүрээг
▁тулж
▁бүлээн
▁хараагүй
▁заналхий
кийн
▁профессор
хас
▁хөлийг
атур
▁сонирхож
▁ирээдүйд
▁хүндэт
▁дутагдал
▁орхиод
▁бер
▁шийдэг
▁тархаахад
мон
▁гялалз
мол
▁шүдний
▁төдхөн
▁ебс
▁босч
▁энэрэнгүй
▁эрин
▁дууссан
▁цэцэрлэгийн
▁уралдаан
▁филипп
▁татаар
▁хичээлдээ
▁лен
▁сургасан
▁тархины
▁хунтайжийн
▁улайж
▁жуншушэн
▁үүрд
▁хойч
дх
▁арын
▁сонинд
▁билгийн
▁саах
▁чух
▁нагац
▁химийн
▁хүд
үүдээс
▁тодруулж
▁өнгөт
▁тэнхээ
▁сэргийл
▁зөрчлийн
▁ядахдаа
▁буцааж
▁уурхайн
▁үзвээс
▁яаралтай
▁дуустал
▁мэдлийг
▁ялт
▁туршил
▁арилж
▁эвтэй
▁хятан
хур
▁агнаж
нэм
хнаас
▁аф
▁унадаг
▁болгоомжтой
▁эрэлхий
гуудыг
▁хэмээнэ
▁бишр
▁уудам
имд
▁мэдэгдэх
▁сүйтг
▁бодлын
▁төлөвл
▁тулаанд
▁ямаа
▁найд
▁сандагийг
▁матер
лэжээ
▁арилган
▁харуулах
▁хотноо
▁ферм
дугаар
▁манжийн
үүлэгчид
▁ухаант
▁харахыг
▁уйг
▁санскрит
▁өвөрмонгол
▁андгай
сөг
▁польш
▁стратеги
▁өсгөж
▁хөдлөв
▁мөнгөтэй
▁шүүж
▁бүтээлд
▁хонз
▁мэргэшсэн
▁бариулсан
▁үзүүрт
▁буцалгана
▁үүсгэх
▁орныхоо
усын
жинд
▁толгойтой
▁өсвөр
▁чадвараа
▁ууланд
гэд
▁нүүдлийн
ээсэй
▁чул
хэндээ
▁туулж
▁горьд
▁зөвлөлтийн
▁сургалтанд
▁сэдвийг
▁парт
▁дасгалыг
▁аан
амгүй
▁зориулалтаар
▁буун
▁дүг
▁болгохыг
▁булаг
▁хийлгэх
▁ургадаг
▁энгэр
▁балчир
▁дарсан
▁бүрээс
▁тивд
▁сахиул
инь
▁зөгн
үүллээ
▁бял
икт
▁дүгнэлтийг
▁сэнх
▁өөдөөс
▁нэрийн
ална
▁унав
▁ерөө
▁уугаад
▁японы
▁бух
базар
▁харьяал
▁амжил
▁сүсэгт
идай
джээ
▁вий
▁сурагчдыг
▁асуултын
▁шилжүүлэх
▁нэгтгэн
▁тэгэхгүй
▁хоолл
▁ся
үлэн
▁нүдээр
▁архиар
▁конгрессын
▁зоор
▁парф
▁ханаж
▁лян
▁тамирын
▁малаа
▁нэмэгдэл
▁үймээн
▁органик
▁тушаалтан
гэлээ
▁агент
хуй
▁бодисадва
ск
▁оухэз
▁бүрнээ
▁тамирчны
гасанд
▁буя
▁цолыг
▁фил
▁хамгийг
бр
▁хөдөлсөн
▁хэрэглэхийг
▁солио
▁хөгжм
▁санадаг
▁зайсан
▁эрхшээл
▁хэргэм
▁суурил
▁хоргод
▁шалтгаалан
▁амьтанд
▁дахиныг
▁ахиц
▁ургалт
▁нэвтрүүлэг
лаваас
▁бүлд
▁сонгогдсон
▁ортугай
▁хаах
▁цуу
▁уз
▁захирсан
▁өөрчлөгддөг
▁шивн
▁эзэмшиж
▁очно
▁юнд
▁чингэж
▁сел
▁өргөв
▁ахиад
▁сэтгэлдээ
вин
▁бүтсэн
зүй
▁хүрлээ
▁алдан
▁бодь
▁зохилд
▁үгсийг
▁багад
▁роб
▁халб
▁буурч
гөр
▁сууг
▁сэлэм
▁хариуцлагатай
▁чухамхүү
▁хөвгүүдийн
▁буянтай
гер
▁яаманд
▁бүжиглэж
▁тусал
▁хугацаандаа
▁ирээгүй
гахыг
ара
▁биеэс
▁хүүхэддээ
▁мөчид
▁амласан
скийн
лэгддэг
▁харавтар
▁туссан
▁будаг
ерв
▁математикийн
▁хамааран
▁ганжуур
▁хадам
▁урьдаар
▁амжилтын
▁долоодугаар
гаая
ау
▁боржиг
▁зүйлүүдийг
▁бандид
▁гаргахыг
алдав
▁судалсан
▁бамбай
▁египетийн
ажээ
▁менежм
▁агнадаг
▁куб
▁нүүдэлчид
▁хэмээгд
▁төрөлхийн
▁эсэн
▁хүндэтгэх
▁итгэсэн
▁ээжийнхээ
▁ядуур
▁ирснийг
овин
▁амжилтыг
▁анир
▁авдаггүй
▁оньс
▁перс
▁амрах
▁захын
▁осолд
▁төрүүлдэг
▁тэж
▁таслах
▁цаа
▁англичууд
▁ширхэг
фор
санаа
▁охинтой
▁нэмэгдсэн
▁авралын
лсэн
▁дэвтээлэг
▁бичлэгийг
▁мехтаа
ням
▁угийн
▁үзүүлэв
▁хийморь
▁сүлдийг
▁өргөөнд
▁хэвтээ
те
сай
▁соён
цан
▁бэлдэж
▁дуурьс
▁тоор
▁ажлынхаа
▁сайгүй
цийг
▁хүүгийнхээ
▁жүжигчид
▁зөвшөөрөхгүй
срын
▁кап
▁хандив
▁сургаж
илсон
▁зоч
▁хөмсөг
хнийг
▁үерх
▁батлах
▁хэрцгий
▁эхэндээ
▁гэт
▁метр
▁буг
▁шоол
▁санаарх
▁бэрхшээлийг
лэхийг
ато
▁хэрэгц
▁ирвэл
тин
▁групп
▁багтаж
▁гурвуулаа
аныг
▁цаасан
▁тодорхойлдог
▁минутын
▁хязгаарыг
▁шалтгаална
ыгаа
▁зөвшөөв
▁жорж
▁бадам
▁хаясан
▁хамгаалагчдыг
бэй
▁байгаагаас
үрийн
▁дааж
▁жилээс
▁хацар
▁суур
▁шалтгааныг
▁жилдээ
▁алаад
▁амьдралаас
▁див
▁гуд
▁буруутай
▁хуя
▁хөдөлгөж
▁санамсар
▁номч
ьюү
▁нүгэлтэн
▁ярихад
▁өлсгөлөн
омуй
онт
▁хөвгүүнийг
▁итгэхгүй
▁өөрчлөгдөх
соны
ди
▁сахил
▁төрөв
▁редак
▁хүчл
▁нэгээхэн
▁хэмээдэг
▁ялгааг
▁уулзвар
▁зарч
▁найрал
▁мэдэлтэй
▁зорилг
▁ашиглана
▁амлалт
▁үнэгний
▁халт
▁ногооны
тгий
▁латин
лөөс
▁баярын
▁тэргүүтэн
▁байгуулалтын
үүлэхэд
▁чир
▁дээжийг
▁арилгана
▁ургамлыг
ометр
▁тараах
▁сенат
▁сэтгэх
▁шатааж
жсэн
▁зорин
▁ахин
▁шалт
зыг
▁судас
▁жишиг
▁дэлгэрчээ
▁медал
▁шинэчлэлийн
▁барууны
▁нууцыг
▁нэхэмж
▁харив
иод
өлөөс
▁бүрддэг
лоод
▁талаараа
▁орчмын
▁багаасаа
гэс
нийн
▁се
▁наст
▁сена
▁км
▁баймаар
▁идүүлбэл
▁дадал
▁үеийнхэн
рүүлэх
▁тарь
▁телевиз
▁хаалгаар
▁эрсдэлтэй
▁эрчимтэй
▁өмсөөд
▁мөнхөд
хныг
▁харьцуулж
▁тут
▁ичих
▁сурна
▁алдав
дуулах
▁зүйг
▁гаргахгүй
▁увдис
▁солиор
▁бактер
▁залр
▁зху
▁лалын
▁дайл
ханы
▁гэмээ
▁хариулан
▁ургана
▁бум
▁эдгээрийн
▁шоо
▁эцэгт
огдов
▁хормой
▁сек
▁төлөвлөх
▁хатаасан
▁нутгаар
▁жүрчид
▁сахиу
▁тууж
▁бахархаж
▁дараалал
▁бурхдын
▁цайны
▁загал
▁нүдэн
дов
▁тулалдааны
▁коммунист
▁хэвлийн
▁төсөөлж
▁тэнцүү
▁тууштай
▁муудаж
▁багтаа
▁бишрэл
▁эч
▁барилдах
▁чагн
▁гүйх
▁рефлекс
▁хүчит
▁хөвгүүнээ
▁зүх
▁зарчм
анс
▁нох
▁босгож
▁хооллоно
▁бүхийг
▁бэлд
▁үгтэй
▁суулгаж
▁австри
лэвэл
▁түмнийг
▁архийг
▁гайхамшигт
▁дил
▁болсноор
▁тайчууд
▁дагалд
▁ээжийг
▁төвөг
▁нурууны
▁арваад
▁даам
▁олзлог
▁хичээсэн
▁гомдлыг
этг
▁идэш
▁армийг
▁ринчин
▁буяны
▁үнэлэмжийн
▁сүйд
▁голчлон
▁дэвтр
▁хүнийхээ
▁мандал
▁баярлан
▁перикл
▁нал
▁аваа
▁илб
▁материалыг
ллийн
▁төд
▁өтгөс
▁ив
▁найрам
▁элемент
▁засна
▁гавья
маны
▁төртэй
▁хатгах
▁төрөлд
▁үзлийн
сдөг
▁татдаг
▁мэдэгдэхгүй
▁баримтлал
▁хувц
▁үрэвс
▁мэ
▁орхино
▁боловсруулалт
▁эф
▁жэн
тог
▁эрхээ
чилгээ
хнаар
▁хуучир
▁угаах
▁сенатор
▁амьтдын
▁цорж
▁хэлнээ
▁батмөнх
▁бэхлэн
▁дөхөж
▁нүүрээ
▁аяс
▁ухаарч
▁охидын
▁утсаа
сб
▁эндэг
жүхүй
▁афин
▁байя
▁хоёрдугаарт
▁сх
▁биелүүлж
▁сэлб
алцан
▁манзушир
▁таарч
▁шт
▁машид
▁маргааныг
▁сонирхлыг
▁ажлаас
▁жимсний
гасны
▁өртөг
▁бүтээнэ
▁эйзенхауэр
▁хангалуун
▁үзээрэй
▁явагдах
▁ачаар
▁төөрөлд
агал
▁шань
▁цезарь
▁болсонгүй
▁авьяастай
▁дэлгэц
▁аажим
▁өсгөн
▁концерт
жсөн
▁оруулдаг
▁байгалийг
уураар
еал
▁германд
▁материаллаг
▁дорнын
▁иерусал
▁рэньзун
▁дуусах
▁дусаавал
атор
▁сен
▁номлосон
амжав
▁тенд
▁атир
▁бүж
▁маалд
▁гаргал
▁өөрийнхөөрөө
▁менежмент
▁тоорил
▁гэмтэл
▁залуугийн
▁дадлага
▁хаях
▁туйл
▁балин
▁аппар
▁балетын
▁жишээтэй
▁чангал
уулмуй
▁хийц
▁чимэд
▁чац
▁монголчуудад
эгнэж
▁мот
▁дэй
▁зоригт
▁ихэнхийг
тайн
▁хэтэр
▁төрүүлсэн
то
▁болгохын
▁хэсгээр
▁алхаж
▁гуйсан
▁италид
▁бялд
сол
▁гэрээг
▁гэз
▁өртөө
▁холилд
▁барах
▁рейган
▁авахын
▁хямр
▁шүүл
▁үзэхгүй
▁ажаа
▁компанийн
▁холбогдол
бол
▁хүнээр
исс
▁асуудаг
могц
▁тугийг
шаан
▁майк
▁хөгжимчин
▁такс
пан
▁заримыг
▁соёол
▁цөцгийн
▁сайж
▁санаачил
▁будд
▁албанд
▁тариалангийн
▁дарс
▁мэдрэхүй
▁дайсагн
▁ялагд
▁надаар
▁учирсан
▁тараг
▁барж
▁цор
ахуй
▁чигл
▁жер
омын
▁хүзүүн
▁бүг
▁үүсэл
▁аман
омжгүй
▁эвс
▁мэдэхүй
▁тайланг
дас
▁цуглуул
▁дардаг
езид
▁сонгоно
▁загалмайтны
▁мэдэв
▁хүргэнэ
▁хийдэд
жигн
▁урамш
▁батлан
▁дарангуй
▁эрдэнэс
▁харьцуулахад
▁биенээ
▁уриан
соно
имийн
▁магтан
▁газартаа
▁ца
▁сонсгол
▁хураан
▁хамаарах
▁ногоог
▁олонд
юү
лаач
▁жаргалан
▁дугар
▁зуурын
▁номонд
▁амьгүй
▁ойд
▁худалдах
▁найруулж
▁тоомс
ааснаар
▁дамжуулах
▁төдийлөн
уны
▁үсгээр
▁чулуугаар
гүү
▁дондов
▁сайдыг
▁байлдах
▁тохирох
▁түн
балын
▁хатгал
▁харгалзан
▁вьетн
▁босох
▁бэлтгэсэн
▁энерги
▁босгосон
▁мэдэрсэн
▁хаб
▁владим
▁уншиг
▁өмхий
▁нэмэгдүүлж
▁зөрөлд
▁чадварын
▁үнэлгээтэй
▁олонхи
▁темпер
▁булчингийн
энгүй
▁өгөгд
▁нью
▁музей
аалж
▁даймин
▁салбарыг
▁хял
▁илэрхийлэл
▁давах
▁болохоо
▁чадлаа
▁бямб
▁энэр
▁шүүн
▁түшээт
▁хаанаа
▁журмын
өгчид
▁линколь
за
▁гурвыг
▁болом
▁чармай
▁яав
▁худалдаачин
▁дайснаа
▁чөөх
таг
▁фэн
▁сэхээр
▁дагах
▁афины
жаар
▁довтлон
үүлбэл
▁хошногоны
кт
▁сахилга
▁болгос
▁хоцорсон
▁зөвшөөрдөг
▁гурвын
гөнө
▁нэгэнтэй
▁тодорхойлогд
▁сем
бил
▁бэтэг
ерийг
▁хичээн
яат
▁хаалгыг
▁тот
▁санагдах
▁мбс
▁эрсд
▁гаргалаа
▁сударт
▁элб
▁бел
▁найдаж
▁чичр
▁үйлдэх
▁дэвс
элэн
▁дийлэнх
▁эрхэнд
▁хуйв
▁бүлээ
дээс
▁лим
▁хац
▁шарыг
▁сэтгэлт
егийн
▁амжилтанд
▁сэтгэвээс
▁махн
хаас
▁нийцсэн
▁үгэн
▁төг
▁хавч
▁сонирхон
▁хүндээ
▁нүдээрээ
маас
▁технолог
▁хэвлүүлсэн
▁хүрд
▁цусм
▁дөл
▁тэнгис
▁системд
▁хороол
▁орлогын
▁эмэгтэйчүүдийг
▁эгнэгт
▁төөнөдөг
▁сургалтад
нөөс
ини
▁тээврийн
▁гөрөөсний
▁австрал
▁бурууш
▁гуйлга
▁өгүүлжээ
▁үсийг
▁сог
▁таалал
▁зоргоор
▁тооцож
▁хао
▁тойронд
▁зорилгодоо
ивал
▁сэнгүм
▁гөрөө
▁цуврал
▁ярианы
▁тахиа
▁явуулан
хим
▁оруулав
лөв
▁дэвшигч
▁холбогдлыг
эндоржийн
▁тарган
▁заалтыг
▁нуурт
▁кол
▁тохиолдл
▁ихс
▁авчих
гээрэй
▁дэнд
▁эрэм
▁бурх
▁бүгдийн
▁долл
▁хаагч
▁шөн
элжээ
▁арилгахад
▁торгуул
▁гэсээр
▁хуулинд
агдаагүй
▁соль
▁үүсгэдэг
▁шорон
▁рей
▁шилжиж
▁хүндрэлтэй
▁сүрд
▁үгүйсг
▁чөлөөний
▁төмс
▁сонгол
▁нийлээд
▁компаний
рэл
▁боловсруулан
▁айзам
▁тээн
амц
эгдэнэ
▁чингүүр
норов
▁салх
▁үлдээх
нес
▁мү
▁мэдлээ
▁хөм
▁өргөс
▁гайхам
▁завгүй
▁амгаланг
▁мэдэгдэж
▁сээр
▁дуулна
эснээр
▁дуучид
ерын
▁нэгдэж
▁царайг
▁баял
▁санаач
▁соёрхол
▁гүюг
▁ангилдаг
▁лхаг
▁хийгдэж
▁ялгаагүй
▁буцаан
ко
▁данс
▁сэж
▁өрөөл
лэлтийг
▁төлсөн
▁шв
▁нийгэмлэг
шу
▁умарт
▁буурал
▁зорилгыг
▁тулалдаж
▁талбайг
нөөр
эгдэн
▁болмоор
▁сурт
▁хартал
▁халиун
▁сурталчилгаа
▁илэрхийлдэг
▁хэлэлцэж
▁дайлаар
▁ээлжлэн
▁идээний
▁соонаа
▁төрөө
▁даадаадийнэ
▁анхнаасаа
▁мирзаа
нуудын
▁тавиул
▁цэвэг
▁сурвалжил
▁зөрчилтэй
▁зохиогчийн
▁салгах
▁ачаал
▁үйзэн
эмсэг
▁чихрийн
▁сувар
или
▁шаардах
▁хутаг
▁хөдөөгийн
▁европчууд
▁оргосон
▁төвөдийн
▁зөвшөөрөлгүй
ков
▁даал
оосой
▁олоогүй
▁жамух
▁ачийг
▁мартахгүй
▁рай
▁соёрхож
▁адууг
▁талуудын
▁бөмбөр
▁сох
оцгоо
тнаас
▁үргэлжилж
▁урган
▁вир
▁дөлгөөн
▁таалагдсан
▁тусгүй
▁үргэлжлэх
▁тайлбарыг
жээд
▁камер
▁хязгаарт
▁үүсчээ
▁үйлчилгээнд
▁тохиолдож
▁нүүдэлчдийн
лагтун
▁сүрье
▁өгөөмөр
▁голлох
▁удирдагчид
▁угтаа
▁овогтон
▁цөөр
▁хоорийгийн
▁фаш
▁шүдээ
▁тэмдэглэжээ
▁гэзэг
▁дүүг
▁чадлыг
удай
▁сэтгэн
▁таваар
▁төлөх
▁түүж
▁хороонд
▁бүхэлдээ
▁шанд
▁хэлбэрүүд
мой
▁тактик
▁хүчирхийлэл
едийн
▁эргэцүүлэн
▁үндэстэй
▁шинэчилсэн
тгийг
▁хоёрхон
▁азтай
▁мэргэш
▁чөлөөлөх
▁барсны
▁гурвалжин
▁бурууг
▁жян
▁зөвшилц
▁нүүрний
▁амьтдыг
▁илжиг
▁сүүлчээр
▁жоу
▁агуулгаар
▁бөл
▁тоглоно
▁тогоо
▁мөргөж
▁ажиллуулах
идийн
▁ань
▁паул
▁золиг
▁болоо
▁махан
▁асууна
чихдэг
▁испани
бс
▁отчигин
▁дотны
елл
гэв
ууныг
▁агсан
▁карьер
▁болчх
▁тулалдах
▁харьцах
үгийн
▁асууд
▁зарлав
▁хүрээгүй
▁буулга
ью
▁суухад
▁гэрээнд
▁үзэсгэл
▁тогтоожээ
▁харьцдаг
▁боолчлол
▁зээлд
▁баатр
▁үржүүлэх
яас
▁хэмжүүр
▁байлгахыг
▁нигүүлсэгчийн
үүдээр
▁түүндээ
▁үзэсгэлэнт
▁мэдэхүйн
▁зөө
▁интер
секс
▁тиймдээ
▁мордож
лэхэд
▁бүтээн
▁аймгийг
▁төсөлд
▁тивийн
▁холим
уунд
▁ачаалал
▁умзад
▁ярилцдаг
▁эзэнд
▁удирдлаг
▁баар
▁өвчил
▁таагүй
▁өгүүлэн
▁эрэгтэйчүүд
▁хэвлий
▁өрсөлдөх
▁дэмждэг
▁гэмтээ
яг
▁тарианы
▁хэмжих
▁нигүүлсэгч
▁гац
эхүйц
▁эрхэмлэдэг
▁бууруулж
чуг
▁өсөх
▁эргүүл
▁хатууж
▁зовоо
эндэв
▁найраг
▁язгууртан
▁өмгөөл
▁зурж
▁нийтлэл
▁шад
гис
мэн
▁онолыг
▁анхил
пор
▁жамсран
▁ханын
нол
▁суурьтай
▁засаглалыг
оолоо
гэний
▁лар
▁доог
▁наймаа
▁хүчир
▁өөрчлөн
▁үеэ
▁хангасан
▁нөгөөх
хүй
▁шинэч
▁солонго
▁сэтгэлээс
▁хэлэн
хал
▁иргэншил
▁гаргахын
▁эрхбиш
▁хамж
▁устай
▁конц
▁нүүрийг
▁гүжир
нуур
▁хуулбар
▁хүндэлдэг
▁түшмэлийг
▁тэвч
▁атугай
▁тэтгэв
эгийн
▁төлөөлөл
▁нутгаас
▁өвчнөөр
▁мөхтаа
▁бөмб
▁гат
▁нэгтэй
▁баясгал
▁хэлм
члох
▁зүүж
▁минжүүр
▁нэрлэгдсэн
▁гэндэн
▁цохигд
▁цавч
▁чадмуй
▁хурдаг
▁хөлсний
▁туй
▁цээрл
▁үйлдлийн
▁барина
▁морио
▁оросууд
▁холгүй
чхаад
▁шилжилт
▁тэмцэж
▁шээсний
▁сэдэвт
▁өргөст
элтнүүд
▁жанжны
▁хийл
▁хугацаатай
члалын
▁хүрэхэд
▁шинжийг
▁хариуцсан
▁нэрлэжээ
▁ёст
▁ла
▁жаха
▁байгууллагуудад
▁сонирхдог
алтаас
▁азид
▁нөхцөлийг
▁хуучны
▁зорилгын
▁сааргүй
▁бугуй
лэгчдийн
аци
▁давтах
▁асуудлаа
▁нацагдорж
▁нямбай
▁заар
дох
бая
тэйгөө
▁хив
▁колум
▁трансжендэр
▁суралцдаг
▁тэмцээний
▁гэ
тий
▁тасралгүй
▁агнах
▁угтан
▁хамгаас
▁муг
▁жагсаалтыг
▁пин
▁тэргүүнд
▁үргэлжилнэ
сод
▁хандуулж
▁хожмын
▁үүсч
▁тэмүүжин
▁гүүр
элдэх
рөөр
▁мур
▁жих
▁үйлчилдэг
▁хайрла
▁орхон
лагдана
ерм
▁рен
▁өргөмжил
▁тайзнаа
▁ромд
оолд
▁системтэй
▁зайлсхийх
▁зорилгоо
▁дахинаа
▁нил
ээлэг
илох
▁амтай
▁зохиолчийн
▁цуваа
▁юугаар
андар
элдэн
▁бослог
▁хятадууд
▁спарт
▁наалд
алдаан
▁амтлаг
▁хиртэй
▁үүдний
▁хүртээл
▁доб
▁вэнь
▁шинэтг
▁хувирчээ
▁онцлогийг
▁хөргийг
▁бүтээдэг
▁хамгаалалтын
▁метал
год
ирийн
ена
▁аю
▁ахмед
▁энэтхэгт
▁ярихыг
▁хүрэхийн
▁хариуцах
өрч
▁туршлагыг
гөж
▁талбарт
▁нүүл
▁ширээг
ют
▁илэрсэн
эе
юн
▁маан
▁засан
▁төлөвлөг
▁гарз
▁ялагдал
▁угаас
▁бүүр
▁уужим
▁ичин
▁оор
▁эрхш
тул
▁алтайн
▁боловсруулахад
▁стратегийн
▁явтал
▁оролцооны
итой
▁харилцаж
члэх
итг
шинэ
▁мухали
▁өгөөж
▁хууч
▁хуваар
▁холбогдуулан
▁нэмэгдэнэ
▁даран
ава
▁евр
▁гурвантаа
▁билэгдлийг
▁ханхүү
▁эмгэнэлт
▁хилэнг
▁хүлэмж
▁галыг
▁далайд
▁хөрөнгийн
▁зуршил
▁ялгагч
▁хүчинтэй
унь
▁барьжээ
атал
▁үүсэж
үүг
игчид
▁бидэнтэй
▁зоо
▁залуучуудын
▁аймгуудын
▁цэргээр
▁соёлтой
чүүр
▁эрэгтэйчүүдийн
▁хүртсэн
▁вэй
▁барваас
▁эргэлзээ
▁өгүүлдэг
▁драм
▁цээ
▁зэрг
▁олгосон
▁обам
▁тохойн
▁мөрөнд
▁гомбоо
▁дарав
▁төгрөгийг
▁дох
▁шажин
▁сургуулиудын
мэр
▁академ
▁даргаар
ду
▁гарамгай
▁домогт
▁илч
▁вик
▁зуугийн
▁чуул
▁тусын
▁орчуулж
▁өнцөг
▁хэлэхдээ
үний
▁татварын
▁загн
▁илүүтэйгээр
▁үхлээ
▁дот
ээдэй
▁бүрдүүлнэ
▁тэвчиж
▁орохыг
▁христос
▁автсан
▁ари
▁хийхээс
▁угал
▁хэнг
туул
▁занги
▁царайтай
▁дизра
▁дайсанд
▁хотуудын
▁замаас
▁хөгжимчид
оёр
▁сэх
▁цаашдын
▁дайчингийн
▁тэмтр
иггүй
▁уулгана
▁магнай
▁зөрчилдөөн
▁өгөр
үм
▁бүтцийн
▁ахуйд
эрэг
▁алийг
▁мөргөлдөөний
луудыг
▁телевизийн
▁байхаас
▁тооллог
▁өчиг
▁дараал
▁хилэнц
▁ажиллаад
▁судлаачдын
▁орог
▁британи
▁тамгын
▁жянь
▁яван
▁гүйцэж
▁хаж
▁үүсгэгч
▁өмчл
▁талбар
алтанд
▁санхүүжилтийн
▁усалгаа
▁механ
▁ивээн
▁то
▁зөрүүд
▁саб
▁зэргээс
▁шилтг
▁оюу
▁тольд
▁ялаг
▁ажилтны
▁хийраа
▁бэйлийн
▁хэлэлцүүлгийн
▁байгуулагч
▁байгуулна
▁сүүнд
▁хэрмийн
▁ургаж
▁түүгээрээ
рууд
▁харуулыг
▁элгэн
▁чиглэлийг
▁эхтэй
эгдэл
ууруулах
▁александ
▁уралдаанд
▁шааз
▁медаль
▁аялах
▁хилэн
▁кас
▁хүлээдэг
▁ирвээс
охин
▁дхан
▁сүхбаатар
▁авахдаа
▁анхандаа
▁угаал
лүүдийг
▁залгамжлуулжээ
аасай
үүлмүй
▁тэргүүлэн
▁нөхдөө
эч
▁өгдөггүй
вель
▁зогсоо
▁шилжүүлэн
▁харьцуулан
▁мөрнийг
▁узун
▁яваандаа
▁товчоо
▁хөхүүлж
▁ло
▁бүтээгдэхүүнийг
▁наман
▁хөдөлгөөнд
▁хүзүүний
▁аваарай
ийгөө
рат
▁оруулан
▁дү
▁танилцуулах
▁шадарт
▁ру
▁ажиглах
данзан
▁боловсруулагч
▁хөгжүүлж
агаар
▁ардчилагчид
▁аргаа
▁тэмдэглэдэг
▁өөрчлөлтүүд
▁нэвтрүүлэх
▁паг
▁төвдийн
▁отр
▁егүүтг
▁бүлэглэл
▁фара
▁шагдар
▁шарав
ессын
▁зөрчл
▁ят
▁амаар
▁мягмар
▁зарга
▁оролцоотой
элүн
▁нигуур
▁нуруун
рахгүй
▁цут
▁зохиох
изан
▁комисс
▁лекц
▁өршөөгч
▁төлөг
▁нийг
▁нэвтэрхий
мар
▁шудрага
▁дуурь
лад
▁оролдлог
▁авлигатай
▁тооцно
▁мөргөх
▁хэрэгцээнд
▁батист
▁шаардсан
▁тянь
▁хүмүүнийг
▁асуудалтай
▁хубилайг
▁ямарч
▁буз
▁уучлал
▁дүнгээ
▁сууринд
▁шалгалтын
▁цагаадай
▁төлөөлөгчдийн
▁архины
▁дундын
ть
егр
равдан
▁ламаас
▁тосоор
▁нэгтгэж
▁аянд
▁тэмцээн
▁ордос
▁мусульман
бор
▁баатрыг
▁зориулалттай
▁төгсгөлд
▁нийгм
▁нэвтрүүлсэн
▁хижиг
▁үлээ
▁хүж
▁бэлтгэн
▁тоду
▁транс
▁тонгой
▁одоогоос
▁өөдрөг
▁зох
▁боом
▁мэнгэтийн
▁гавьяат
▁тэгэж
▁асран
▁зөрчигд
▁галз
▁хонгир
▁сурахад
▁жао
▁нөгчвэй
чан
▁тв
▁хиа
▁билл
▁шанду
▁суртах
▁сараас
саж
▁анагаахад
▁конвен
▁айдаг
▁нөлөөгөөр
▁үүргийн
▁малчид
▁католик
▁анхлан
▁мунх
▁менежментээр
▁ядуурлыг
▁цөмийн
▁ониг
▁судлыг
чихсөн
▁хуваарилах
▁утг
▁очдог
май
▁нид
▁зураглал
▁амраг
▁нийтийг
▁дүгнэж
ширч
▁гичир
▁тулгуурласан
▁домгийн
енн
▁нийслэлд
▁гер
▁тусгагдсан
▁гардаггүй
▁дүүргэж
▁боловсорсон
▁эвдэж
ашин
ондын
▁асрах
▁албагүй
▁хэлээ
хийж
▁дэлгэрч
▁хангай
дуул
▁тодорхойлолтыг
▁продюс
эвээс
▁хорш
ашийн
▁тит
▁хүсэн
удын
▁амьт
▁хэлмээр
нажээ
▁хөрсөн
▁жишээг
▁овоол
▁цусаар
▁поп
▁стандартын
▁нийцэж
▁цээжний
▁түймэр
үгэ
▁ухам
▁баасыг
▁нэвтрэн
▁гарьд
▁хатнаас
гатай
▁швед
▁эхчүүдэд
▁тогтолцоонд
▁судасны
яр
▁довтолгоон
▁ламыг
▁сат
▁ирмүй
▁донгод
▁балхүү
▁нээн
▁засаад
▁пунц
▁хүүршүүлэн
▁байгууллагыг
▁донор
▁архаг
бл
▁хэлэлцүүл
▁засч
хонд
▁эмэг
▁ярилцлаа
▁зүүний
▁жүжигчний
▁хэрэгжилтийг
чдийг
▁тусах
▁баримтлах
▁мэдлэгийн
▁шийдвэрлэж
▁түшиглэсэн
▁агь
▁шударгуу
▁холын
▁уучлаарай
▁боорчу
уулаа
▁конвенц
чой
▁шүүсийг
▁үхэв
▁трой
▁булчир
уурах
▁хуантайзи
сун
▁буулгасан
▁ананд
▁гэдгийн
▁харьцаж
▁орохгүй
▁но
▁зөрчилд
игтун
▁хүндлэл
▁дрейф
▁сайжруулахад
▁гэсэнд
▁киев
▁хэрээс
▁лууван
длүүд
▁академич
▁бүлгэм
▁агуур
▁чухаг
▁нэрийдэв
▁явбаас
▁докторын
▁уурын
еб
▁практикт
▁талхдаад
▁чэнзун
▁сэргий
▁биелүүлээгүй
▁өсчээ
▁сац
▁алинд
▁газруудад
цаж
▁угаавал
▁дангаараа
▁содном
▁тулгам
▁ход
▁людов
▁мөрөө
▁альенде
▁ухаарал
▁гэгээний
▁сууриа
▁байрладаг
▁нэрээ
▁австрали
атай
▁боов
▁бүтээгд
олз
▁эрхин
▁морьт
▁шөр
▁мухул
▁австр
▁цэрэгтэй
▁эргэц
▁хөвөө
▁хаагд
▁сэргэн
андорж
гөлд
▁вангууд
▁асуултыг
▁так
ений
▁яп
▁өөрсдөдөө
▁ангийг
▁зохицуулалтыг
▁тусгал
▁хүсэлтэй
▁хүртэх
▁дүүрсэн
лодог
▁улиастайн
ьдог
▁бинт
▁өнөөг
▁түшмэдийн
▁үнэлнэ
▁эдлэл
▁тангуд
хү
▁номтой
анц
▁догол
▁угсааны
▁худалч
▁нээлтийн
амбын
▁хуваарь
▁мэдрэхүйн
▁мэдлэгтэй
▁хадгална
▁бакалаврын
▁хамаардаг
▁өвчл
▁илчлэг
▁шинэчлэн
▁бясалгал
аков
огц
▁илгээрүүн
тэнг
▁уншлага
▁хөхтөн
улын
▁томор
▁байгуулагджээ
▁тамирч
быг
шсэн
уузай
▁хэтр
▁болцгоо
▁дурьд
раф
▁тооцоо
▁мөргөлдөөн
▁тэнг
▁мэндэд
▁бишрэн
▁шатаж
▁улиастай
▁монголыг
▁юнь
▁найманы
догч
▁англ
▁зөрчлийг
▁өмчийн
▁ууртай
▁төвшитг
▁мэтг
илгоо
▁онгоцыг
рх
▁бүтээжээ
▁торгууль
гус
▁бүтээлчид
цар
▁дэлг
▁шинэлэг
ьжоу
▁тохируулан
▁тодор
▁ги
▁хүмүүжилд
▁цувр
илго
▁сурвалжтан
▁механизмыг
▁туслахаар
▁зөрчиг
▁илжигний
▁бичмэл
▁цаазаар
▁бүрдүүлж
эз
▁авжаагийн
▁савыг
▁дэвт
▁мак
▁захиргажээ
тикийн
▁хушуу
▁баримжааны
▁бэг
▁мх
амч
▁хүртээ
▁оух
▁константиноп
▁сүмийг
▁элчийг
▁хуулиуд
▁баялгийг
▁хулч
▁төрөхөд
ожоу
▁хорхойг
амсүрэн
▁идүүлдэг
▁ойлголттой
хөөр
▁шаньси
тэс
аанууд
▁мэлиг
▁ганди
се
▁хорхойн
ари
▁дуурьсгуур
▁чиглэлд
▁тэвэрч
▁бэлдсэн
базарын
▁жанж
▁хүндэтгэлтэй
гдэж
▁ялалтын
лэгээ
▁үйлдлүүд
▁адгуу
▁өртөж
▁генер
▁гадас
▁дэвтээ
аяа
▁ойлгоогүй
соныг
уйг
▁монголжин
▁тэтгэврийн
▁зөрчиж
тнээр
гат
▁тамд
▁чуулганд
▁диз
инч
▁авбал
▁жамц
мэ
тгээд
▁тэтгэвэр
▁бодогч
▁мэргэжлийг
▁байлгана
▁эмэгтэйчүүдэд
▁харахаар
▁сүхмаа
▁үзүүлэн
▁авчирдаг
▁пир
амид
▁вал
▁ажиглагчид
▁тавигдсан
▁ишлэл
▁төөрөгд
▁түүхээс
▁өргөөд
▁үүрч
▁талб
▁хүмүүжүүлсэн
пат
▁онуудад
▁дулаар
имуй
огчийн
▁цайл
▁архе
▁бэлдэх
▁сахал
▁буцалсан
▁төлөвлөгөөний
▁таашаал
▁боловсролд
▁дарангуйлагч
▁халууны
▁хэргэмийг
эш
▁хээл
▁рыцариуд
▁бичин
▁танилцуулж
▁хяд
▁талт
▁зарчмын
гуулж
▁огоор
▁хэргээ
▁төмүжин
▁зогсон
▁бүрхүүл
▁хэрэгжүүлнэ
▁өвчлөл
тогт
▁толил
▁дадлаг
▁дэвшилт
▁сүүлч
▁багтаасан
ены
▁хүмүүнээ
▁оролцогчдын
▁хазай
▁нөхөж
▁жанцан
▁тайзун
▁хашгирав
▁сүл
▁бичээч
▁алдаршжээ
▁эрлэг
▁цэцгийг
▁намуудын
▁дуурийн
▁мэг
▁арм
▁тогтворгүй
зунд
▁слав
ллийг
▁яаг
▁цэргүүдэд
▁тусл
▁лек
▁эсэргүүцэл
балжир
▁мэдэхийн
▁наг
▁зурсан
▁авли
▁жалай
▁үндэслэсэн
▁компанид
▁уруг
▁гүрнүүд
▁найруулсан
рамд
ула
▁ивээ
зин
▁шийддэг
▁үстэй
▁хатгавал
▁сорил
▁судална
▁элэгний
гөсөн
▁цэцийн
▁галл
▁баталгаажуулах
▁цэвдэн
▁энэтх
▁угаана
▁чадавхи
▁баригч
▁хангал
апи
амуй
▁рт
кийг
уугийн
▁кай
▁бакалав
▁идэр
▁утгын
▁лес
▁өөрийгээ
лгийг
огш
▁фото
▁лувсанд
лагдан
▁магадлан
▁олджээ
▁боловсрох
илийн
эрэгч
▁харья
▁шарханд
▁санамж
▁бэлтгэнэ
▁хуанхэү
чис
▁үрэвсэл
▁ману
▁патээшвар
▁санскритаар
▁өндөртэй
▁төдийг
▁тев
▁популя
▁зааны
▁сэрэн
▁хэрнээ
▁тавцан
▁продакш
▁босогч
тнуудад
▁санхүүж
уал
▁шаж
▁цэрэндоржийн
▁мөгөөр
▁хамруулах
▁на
▁дараачийн
▁хавирга
▁дайлж
▁бэлтгэдэг
гөөс
ортын
▁аудит
▁нөлөөлөл
▁цир
▁минийх
▁мөргөлд
▁самарканд
▁айз
▁өгөгтүн
▁дасан
▁зохиолчид
▁багасгах
▁олгогч
▁суралцсан
▁бүтц
▁хөтөлбөрт
шүүр
▁хүмүүнд
▁зодож
▁амссан
▁нийлмэл
▁эрсдэлд
▁бүсийн
анын
асын
емийн
▁фа
аам
▁го
дон
▁тангар
▁жя
үт
▁өгл
мөн
▁гаш
▁хөрөн
амгай
гато
шид
▁зохис
▁поль
гаал
члол
▁үйм
нэл
илон
▁оф
ууз
▁энер
▁хүүрш
▁тавил
▁мэнг
зэн
▁дотр
▁цөө
▁бяц
▁стандар
▁урьдчил
▁сүүд
мор
үүлээгүй
▁ув
▁гурвал
▁эвл
▁шудар
▁пат
▁даадаа
▁страт
▁тодорхойл
▁болгоомж
итан
▁наполе
▁стат
▁тел
гац
▁хүндр
▁хүмүү
▁албад
иос
ьди
▁интерн
вор
ахан
галаг
дагчид
эдэй
▁макед
▁британ
▁аймшиг
▁голом
▁хорол
▁шаар
луулжээ
▁сувил
▁зорилгод
▁хуантай
▁банд
▁мир
▁гөр
ьё
▁цезар
ям
▁хуш
▁эсэрг
▁болгоо
▁батмөн
▁ааж
▁уучл
эцэн
▁тээ
▁ерөнхийлөг
▁нигүүлс
▁дором
▁муз
өөв
сноор
▁хорх
чсөн
▁нүүд
анк
▁хич
өдэй
лагдав
▁тусг
▁анхан
лдөг
▁ухаа
мэлз
▁гэнд
аха
▁өгөө
рих
▁өтг
гамж
▁хэлб
▁ниг
эвс
▁хааш
ижиг
зад
▁па
▁хүм
▁улиас
юс
▁өөрсдөд
чигд
эньзун
хэ
▁сурвал
▁инстит
▁тарваг
нь
▁чөл
заар
▁тааш
етийн
▁мен
щ
ааш
▁ойролц
▁сэт
олог
▁ног
▁ним
▁баримж
чилгаа
▁томоо
▁үлг
▁тухайл
▁угс
▁инжен
ианы
▁парламен
илц
▁охи
эргийг
▁пун
▁нут
овч
▁юүгээ
мин
▁өрөв
▁асс
ьер
▁зориулалт
▁номх
өгтүн
▁нөгч
илгын
уля
▁страте
гуд
▁бэй
ааз
икл
инчин
бт
▁уушг
угаар
энх
▁бх
заа
▁тэрб
өрт
▁болб
нор
▁авс
онгуй
▁холбог
хт
лга
бб
аахан
▁өмгөө
чүүдийг
▁дийлэн
▁төхөөр
▁олгуул
нү
▁зог
▁өрш
▁пас
▁донг
▁капит
▁эмг
игаар
мжил
▁пүр
шигч
▁хуваа
▁испан
бөр
▁др
ишиг
▁цагаад
▁бох
▁хугац
аагч
▁нацагд
▁тархаа
эрхүү
▁хөдөлгө
өнгө
▁комм
уль
▁итал
▁гитл
▁бхоол
өмөр
ийгээр
▁константин
▁турак
шина
зээ
▁раа
▁донд
нт
▁прак
үтэй
ёр
гэлэн
▁хязгаарлагд
▁орган
▁нанд
▁ауд
▁өнц
тгай
схий
ошгүй
▁нац
▁залб
гэнд
емент
▁хүз
ном
▁лаб
агдар
пл
▁чон
▁вав
▁мөрт
гөөн
сгал
дийнэ
▁комп
оск
пол
▁дөнгө
▁дөрвөл
▁хр
дам
охино
▁зовл
измыг
▁офиц
гиан
▁шуд
▁хиймор
▁амьс
лаасаа
ото
▁самар
▁отчиг
эмгий
▁тарв
▁цэрг
▁туслал
▁нэвтэр
охи
▁професс
мөр
лөгчид
▁цахил
өц
сран
▁бөөрөн
шөө
вөр
▁соц
▁акад
▁экс
трын
үжин
▁гүвд
онхор
женд
▁тий
мөсөн
▁цөц
▁бэлчр
орхой
▁тогтолц
▁нөө
хэнэ
биш
▁тосг
▁түвш
▁вашин
▁авлиг
▁лат
▁хэрц
▁энэрэн
▁зуз
хлан
▁увд
▁мик
▁өргөгдсөн
лалз
шээл
чүүдэд
▁цэцэр
▁чэр
▁хуантайз
▁газ
ибал
үгээр
юг
▁санв
элэг
сноос
анцан
хондоо
▁ухагдах
▁цамн
ангуй
▁реф
цөлд
▁орол
агц
▁өрс
▁лабор
вен
▁яз
рит
▁гэрг
▁бөрт
ралгүй
лөр
эцэг
▁дорн
▁жишээл
▁тонг
▁кеннед
▁өчигд
▁хангалт
▁инж
ьяа
гавар
▁менеж
▁харгал
ээхэн
эхлээр
▁тогтвор
үүлс
▁патээш
▁дамд
▁бамб
зу
▁констан
лөгөө
еж
онгол
▁судлаа
▁тээв
▁эер
зар
▁колл
етын
нэр
төнц
▁бэт
▁мөлт
▁отг
▁энэх
▁өлсгөл
хау
▁коф
▁прог
▁женд
▁ариг
▁ахм
аарх
эргэд
▁ялан
▁конг
зий
гөд
▁апп
▁өвөрм
▁мог
иун
▁хошног
рага
▁маргаа
▁аригб
жар
▁прок
▁тх
▁ры
▁есүх
▁ау
▁эйзенхау
▁кенн
▁замбар
▁либ
▁занал
▁дусаа
▁борж
▁бараал
▁шархад
лгуул
▁чий
▁мех
▁ред
▁теат
▁инст
али
ипп
шушэн
омжтой
згий
үйл
▁нүц
өлдөр
▁гах
▁ки
▁тэтгэсэн
өмж
лдог
шэн
ралтгүй
▁егүү
▁арс
▁долоод
шги
▁эй
▁татгал
▁зурга
▁мөг
▁гит
▁лг
▁авья
алав
▁чөтг
▁уял
истийн
жүүр
бод
▁техн
▁хяз
зэг
▁чө
аалц
▁доп
адва
▁сонир
▁соон
ерал
▁алек
▁тран
хүл
изу
▁дугт
▁хоц
▁цэнх
▁бак
▁герм
▁тэмүү
ног
▁үргэл
▁гомбос
▁док
▁патээ
▁трансженд
нээн
олик
гээрүүн
▁лув
▁бөгөө
▁афр
▁линк
▁залгам
емат
мсэг
▁огтор
▁сист
▁оновч
▁тем
▁нул
ерусал
энгэ
▁хөндл
▁хуанхэ
▁альенд
▁мусуль
сагн
акш
▁магис
▁долд
▁егип
эгтийн
ьютер
▁хоё
▁прод
енхау
мөс
баз
ейф
эвчлэн
ягмар
▁боловс
